{"<|endoftext|>":0,"<|im_start|>":1,"<|im_end|>":2,"!":3,"\"":4,"#":5,"$":6,"%":7,"&":8,"'":9,"(":10,")":11,"*":12,"+":13,",":14,"-":15,".":16,"/":17,"0":18,"1":19,"2":20,"3":21,"4":22,"5":23,"6":24,"7":25,"8":26,"9":27,":":28,";":29,"<":30,"=":31,">":32,"?":33,"@":34,"A":35,"B":36,"C":37,"D":38,"E":39,"F":40,"G":41,"H":42,"I":43,"J":44,"K":45,"L":46,"M":47,"N":48,"O":49,"P":50,"Q":51,"R":52,"S":53,"T":54,"U":55,"V":56,"W":57,"X":58,"Y":59,"Z":60,"[":61,"\\":62,"]":63,"^":64,"_":65,"`":66,"a":67,"b":68,"c":69,"d":70,"e":71,"f":72,"g":73,"h":74,"i":75,"j":76,"k":77,"l":78,"m":79,"n":80,"o":81,"p":82,"q":83,"r":84,"s":85,"t":86,"u":87,"v":88,"w":89,"x":90,"y":91,"z":92,"{":93,"|":94,"}":95,"~":96,"¡":97,"¢":98,"£":99,"¤":100,"¥":101,"¦":102,"§":103,"¨":104,"©":105,"ª":106,"«":107,"¬":108,"®":109,"¯":110,"°":111,"±":112,"²":113,"³":114,"´":115,"µ":116,"¶":117,"·":118,"¸":119,"¹":120,"º":121,"»":122,"¼":123,"½":124,"¾":125,"¿":126,"À":127,"Á":128,"Â":129,"Ã":130,"Ä":131,"Å":132,"Æ":133,"Ç":134,"È":135,"É":136,"Ê":137,"Ë":138,"Ì":139,"Í":140,"Î":141,"Ï":142,"Ð":143,"Ñ":144,"Ò":145,"Ó":146,"Ô":147,"Õ":148,"Ö":149,"×":150,"Ø":151,"Ù":152,"Ú":153,"Û":154,"Ü":155,"Ý":156,"Þ":157,"ß":158,"à":159,"á":160,"â":161,"ã":162,"ä":163,"å":164,"æ":165,"ç":166,"è":167,"é":168,"ê":169,"ë":170,"ì":171,"í":172,"î":173,"ï":174,"ð":175,"ñ":176,"ò":177,"ó":178,"ô":179,"õ":180,"ö":181,"÷":182,"ø":183,"ù":184,"ú":185,"û":186,"ü":187,"ý":188,"þ":189,"ÿ":190,"Ā":191,"ā":192,"Ă":193,"ă":194,"Ą":195,"ą":196,"Ć":197,"ć":198,"Ĉ":199,"ĉ":200,"Ċ":201,"ċ":202,"Č":203,"č":204,"Ď":205,"ď":206,"Đ":207,"đ":208,"Ē":209,"ē":210,"Ĕ":211,"ĕ":212,"Ė":213,"ė":214,"Ę":215,"ę":216,"Ě":217,"ě":218,"Ĝ":219,"ĝ":220,"Ğ":221,"ğ":222,"Ġ":223,"ġ":224,"Ģ":225,"ģ":226,"Ĥ":227,"ĥ":228,"Ħ":229,"ħ":230,"Ĩ":231,"ĩ":232,"Ī":233,"ī":234,"Ĭ":235,"ĭ":236,"Į":237,"į":238,"İ":239,"ı":240,"Ĳ":241,"ĳ":242,"Ĵ":243,"ĵ":244,"Ķ":245,"ķ":246,"ĸ":247,"Ĺ":248,"ĺ":249,"Ļ":250,"ļ":251,"Ľ":252,"ľ":253,"Ŀ":254,"ŀ":255,"Ł":256,"ł":257,"Ń":258,"ä¸":259,"ï¼":260,"ãĢ":261,"çļ":262,"çļĦ":263,"ï¼Į":264,"ãĢĤ":265,"äº":266,"ä»":267,"åı":268,"im":269,"|>":270,"<|":271,"æľ":272,"æĪ":273,"è¿":274,"è¯":275,"åħ":276,"æĸ":277,"å¤":278,"ä¸Ģ":279,"ä½":280,"æĺ":281,"å®":282,"çĶ":283,"åĪ":284,"åľ":285,"åĲ":286,"åĴ":287,"ç»":288,"ar":289,"en":290,"st":291,"art":292,"end":293,"start":294,"ä¹":295,"åĴĮ":296,"åĬ":297,"åŃ":298,"æĺ¯":299,"å°":300,"ä¸ª":301,"ãĢĤ<|":302,"ä»¥":303,"æĪĳ":304,"ãĢģ":305,"Ġ<|":306,"è®":307,"åľ¨":308,"äºº":309,"æĸĩ":310,"æľī":311,"æĹ":312,"ĥ½":313,"ï¼ļ":314,"åĽ":315,"ä¸Ń":316,"å¸":317,"è¿Ļ":318,"éĩ":319,"äºĨ":320,"åº":321,"åĩ":322,"åı¯":323,"æĿ":324,"å¹":325,"è¡":326,"éĢ":327,"èĥ½":328,"ä¼":329,"åĨ":330,"é¢":331,"çļĦæ":332,"å·":333,"è¦":334,"è¦ģ":335,"åĮ":336,"å¥":337,"å¾":338,"ä¸º":339,"éĹ":340,"æı":341,"çİ":342,"çī":343,"åį":344,"å½":345,"ç§":346,"å¯":347,"è§":348,"ä¸į":349,"çĶŁ":350,"çŃ":351,"çĶ¨":352,"æī":353,"å¼":354,"æŀ":355,"æĢ":356,"æł":357,"éĿ":358,"åı¯ä»¥":359,"ä¿":360,"æĬ":361,"âĢ":362,"æķ":363,"æŃ":364,"ä¸ĭ":365,"ä»¬":366,"èĢ":367,"æıĲ":368,"ä¸Ģä¸ª":369,"æ³":370,"åİ":371,"æĪĲ":372,"ç«":373,"åŃĲ":374,"çĽ":375,"æĻ":376,"æ°":377,"åĵ":378,"åĩº":379,"æĽ":380,"æĿ¥":381,"æĦ":382,"¦Ĥ":383,"æĥ":384,"èĩ":385,"åĳ":386,"çĲ":387,"è¡Į":388,"æĭ":389,"æľ¬":390,"ä½ł":391,"ä¾":392,"é¢ĺ":393,"ä»ĸ":394,"åŃ¦":395,"åĪ°":396,"å¿":397,"å¦Ĥ":398,"æĶ":399,"æİ":400,"ä¸Ĭ":401,"ï¼Ł":402,"å¥½":403,"æĹ¶":404,"äºİ":405,"åı¥":406,"æµ":407,"å¤©":408,"æĽ´":409,"åľ°":410,"æį":411,"çº":412,"åħ³":413,"çŃī":414,"è´":415,"å±":416,"ç®":417,"ç»Ļ":418,"å¤§":419,"è¾":420,"å¯¹":421,"å¤ļ":422,"èµ":423,"æ¯":424,"å·¥":425,"äºĽ":426,"é£":427,"æĸ¹":428,"ç«ł":429,"å°ı":430,"èĩª":431,"ä¼ļ":432,"æĸĩç«ł":433,"åĬ¨":434,"æ¬":435,"å®ļ":436,"æĤ":437,"æ´":438,"åħ¶":439,"åĪĨ":440,"åıĳ":441,"ä½ľ":442,"çī©":443,"æľĢ":444,"ç±":445,"éĿ¢":446,"æ¸":447,"æĮ":448,"å¹¶":449,"æŀľ":450,"æĸ°":451,"éĹ®":452,"éľ":453,"å°Ĩ":454,"æį®":455,"è¯·":456,"æ³ķ":457,"çĤ":458,"åŁ":459,"éĶ":460,"è¯Ń":461,"åģ":462,"çľ":463,"è¿Ľ":464,"éĻ":465,"åĬł":466,"æ²":467,"çİ°":468,"çĦ":469,"ä½ĵ":470,"ä¿Ŀ":471,"å®ĥ":472,"æĸĩæľ¬":473,"ä½¿":474,"éĩį":475,"å½±":476,"èī":477,"âĢĿ":478,"æĤ¨":479,"æ±":480,"ç±»":481,"æĺİ":482,"è¿ĩ":483,"éģ":484,"åºĶ":485,"è½":486,"æĪĳä»¬":487,"é«":488,"ä¸»":489,"çĶµ":490,"æĪĸ":491,"éĺ":492,"åı¥åŃĲ":493,"è¶":494,"éľĢ":495,"å®¶":496,"æĻº":497,"çļĦç":498,"åĬĽ":499,"åıĸ":500,"âĢľ":501,"é«ĺ":502,"çĲĨ":503,"å¸¸":504,"ç§į":505,"ä¹Ī":506,"åĲĮ":507,"çĦ¶":508,"æľº":509,"åĸ":510,"è¯į":511,"æĻºèĥ½":512,"åĮĸ":513,"å¾Ī":514,"æ°Ķ":515,"æĦŁ":516,"çŁ":517,"æĢ§":518,"æģ":519,"åĽ½":520,"åĵģ":521,"åī":522,"åĽł":523,"ç¾":524,"ä¹Ł":525,"è°":526,"çĤ¹":527,"æķ°":528,"å¾Ĺ":529,"èĬ":530,"æĬĢ":531,"éĹ®é¢ĺ":532,"ä»¥ä¸ĭ":533,"åĨĻ":534,"éľĢè¦ģ":535,"æĥħ":536,"åĲį":537,"ç¯":538,"ç³":539,"è§£":540,"ä»İ":541,"ä¹ĭ":542,"ä¾Ľ":543,"éĢļ":544,"åº¦":545,"ç©":546,"å¢":547,"å»":548,"åħ¬":549,"å¹´":550,"æł¹":551,"ç»ı":552,"æıĲä¾Ľ":553,"ç¯ĩ":554,"æ¡":555,"åİ»":556,"ä¿¡":557,"éĹ´":558,"èĤ":559,"èī²":560,"çĸ":561,"è¡¨":562,"äººå·¥":563,"ä¹ł":564,"çİ¯":565,"éĤ":566,"å®ŀ":567,"çĿ":568,"æŁ":569,"æĦı":570,"ç¾İ":571,"ä¸ĢäºĽ":572,"äººå·¥æĻºèĥ½":573,"åĢ":574,"æľ¯":575,"å¿ĥ":576,"è¿Ļä¸ª":577,"æīĢ":578,"æł¹æį®":579,"ä½Ĩ":580,"èĢĮ":581,"å»º":582,"è¿Ľè¡Į":583,"æĥ³":584,"è®¡":585,"èĢħ":586,"åĲĪ":587,"åĮħ":588,"ç¨":589,"åĲİ":590,"çĽ¸":591,"éĩı":592,"ç¤":593,"éĩĮ":594,"äºĭ":595,"é¦":596,"çĲĥ":597,"æ®":598,"åŀ":599,"è¿°":600,"å½ĵ":601,"ä»Ģ":602,"è¯¥":603,"èĲ":604,"è¿ĺ":605,"æģ¯":606,"ç½":607,"ä¸ļ":608,"éĿŀ":609,"éĽ":610,"æŃ¤":611,"éĥ½":612,"åħ¥":613,"åĸľ":614,"ä»Ģä¹Ī":615,"æŃ£":616,"çķ":617,"é£Ł":618,"éķ":619,"ç¼":620,"çľĭ":621,"é¡":622,"çĶŁæĪĲ":623,"ä¸İ":624,"æ´»":625,"å¼ı":626,"åħ¨":627,"ç¡":628,"å¸Ĥ":629,"æ¬¢":630,"éĥ":631,"æ¯Ķ":632,"èģ":633,"æ°´":634,"æĹ¥":635,"å±ķ":636,"å¤ĸ":637,"èį":638,"æ·":639,"è·":640,"èĭ":641,"æ®µ":642,"ç´":643,"åŃ¦ä¹ł":644,"å¼Ģ":645,"å¸®":646,"çĿĢ":647,"åħ·":648,"çī¹":649,"çĶµå½±":650,"éļ":651,"è¯Ŀ":652,"åıĺ":653,"ä½¿çĶ¨":654,"æĺ¯ä¸Ģ":655,"æ¡Ī":656,"ç®Ģ":657,"ç¬":658,"è¯´":659,"æĹł":660,"æıĲåıĸ":661,"éģĵ":662,"è®©":663,"è¢":664,"éĤ£":665,"åĿ":666,"åīį":667,"ç»Ļå®ļ":668,"ç»ĵ":669,"æĭ¬":670,"éķ¿":671,"èµ·":672,"åķ":673,"å¥½çļĦ":674,"éĿŀå¸¸":675,"åĨħ":676,"é£İ":677,"çĭ":678,"çĥ":679,"ä¿¡æģ¯":680,"åĬ©":681,"ç¨ĭ":682,"éĥ¨":683,"è¨":684,"å°ĳ":685,"èº":686,"åįķ":687,"ç§ĳ":688,"çŃĶ":689,"è®®":690,"ç¡®":691,"ç³»":692,"åĽŀ":693,"åŃĹ":694,"åıĬ":695,"åĪ¶":696,"åŀĭ":697,"æĮģ":698,"æĶ¹":699,"éĢĤ":700,"åĸľæ¬¢":701,"åģ¥":702,"ä½ķ":703,"èº«":704,"çĽ®":705,"å¤Ħ":706,"ç¯ĩæĸĩç«ł":707,"æĬĢæľ¯":708,"éĢī":709,"æĳ":710,"ä¸ŃçļĦ":711,"ç®Ĺ":712,"åĻ":713,"é¢Ĩ":714,"äº§":715,"çĪ":716,"èĻ":717,"è¨Ģ":718,"é¥":719,"éŁ":720,"çĻ":721,"åĮ»":722,"éħ":723,"ä¸¤":724,"ä»£":725,"åĬ¡":726,"æİ¨":727,"åĻ¨":728,"æłĩ":729,"åĪ«":730,"å¢ĥ":731,"åľº":732,"æ»":733,"å¦Ĥæŀľ":734,"æľª":735,"ä¸ī":736,"åºĶçĶ¨":737,"ãĢĭ":738,"ãĢĬ":739,"æīĭ":740,"æµ·":741,"æ¯ı":742,"åıĹ":743,"èĪ":744,"çł":745,"åĮħæĭ¬":746,"æ¶":747,"äº¤":748,"æ²¡":749,"å®¹":750,"å§":751,"è¢«":752,"æ¸¸":753,"åŁŁ":754,"åĪĽ":755,"è´¨":756,"ä»»":757,"åĪ©":758,"å£":759,"çĹ":760,"ä»¶":761,"è¿Ļç¯ĩæĸĩç«ł":762,"çģ":763,"å·±":764,"åıĳå±ķ":765,"åı¯èĥ½":766,"éĶĻ":767,"èĩªå·±":768,"åĩı":769,"ä½į":770,"æ±Ĥ":771,"æĢ»":772,"ä¹Ĳ":773,"åıª":774,"æ¨":775,"ç¥":776,"çŁ¥":777,"é»":778,"é©":779,"ä¾ĭ":780,"éĩįè¦ģ":781,"æº":782,"è®º":783,"è§Ĥ":784,"ä»ĸä»¬":785,"æĶ¾":786,"åº·":787,"å¹³":788,"éĶ®":789,"åı¸":790,"äººç±»":791,"å»ºè®®":792,"èĬĤ":793,"åİŁ":794,"ä¹ī":795,"åĵį":796,"æ¼":797,"è®¾":798,"é¢ĨåŁŁ":799,"æµģ":800,"ıè¿°":801,"åħ³éĶ®":802,"åĲĹ":803,"åĨ³":804,"æĸŃ":805,"æĺŁ":806,"å°±":807,"åģ¥åº·":808,"çİ¯å¢ĥ":809,"åħ³äºİ":810,"çĸĹ":811,"éª":812,"è¯Ĩ":813,"å¤ª":814,"æ²¡æľī":815,"æľŁ":816,"è¿ĻäºĽ":817,"åĳĬ":818,"éĢļè¿ĩ":819,"ä¸»è¦ģ":820,"ä»Ĭ":821,"è½¦":822,"è£":823,"æĽ´åĬł":824,"ä¸ĸ":825,"éŁ³":826,"èĦ":827,"åŁİ":828,"è¯ķ":829,"èĥ":830,"ç»Ł":831,"èİ":832,"è¿ĳ":833,"åģļ":834,"å½±åĵį":835,"ä¹¦":836,"å¸®åĬ©":837,"æĹ¶éĹ´":838,"æĻ¯":839,"åħ¬åı¸":840,"å®ī":841,"è¾¾":842,"æĹħ":843,"æŃ¥":844,"èı":845,"çĶ±":846,"æ·±":847,"å·²":848,"ĺè¦ģ":849,"æ¨¡":850,"æııè¿°":851,"æķĪ":852,"æī¾":853,"è¯Ĺ":854,"æł¼":855,"æĢĿ":856,"å¼º":857,"çĮ":858,"çĶŁæ´»":859,"é¤":860,"åĽłä¸º":861,"æĸĻ":862,"å¸¦":863,"èĲ½":864,"è±":865,"æľį":866,"è¯Ńè¨Ģ":867,"èĬ±":868,"éĴ":869,"è¿Ĳ":870,"èĩªçĦ¶":871,"æŀģ":872,"é¤Ĳ":873,"å½¢":874,"é¢Ħ":875,"ç²":876,"æľªæĿ¥":877,"æł·":878,"å°ıæĺİ":879,"åı£":880,"å¥¹":881,"æĬ¤":882,"æķ°æį®":883,"ç©º":884,"åħī":885,"æºĲ":886,"ç¼ĸ":887,"å¤Ł":888,"ç¤¾":889,"å¤©æ°Ķ":890,"ä¸Ģä¸ĭ":891,"ï¼Ľ":892,"åİĨ":893,"çķĮ":894,"ä¸įåĲĮ":895,"å·¥ä½ľ":896,"ãĢĤâĢĿ":897,"æĮĩ":898,"åĵª":899,"æ³¨":900,"é¦ĸ":901,"çĪ±":902,"ï¼ģ":903,"åıĭ":904,"éĵ":905,"æ¸ħ":906,"æĭ©":907,"åķĨ":908,"åĪĹ":909,"éĢīæĭ©":910,"çŁŃ":911,"çº¢":912,"ç»ĻæĪĳ":913,"å¦Ĥä½ķ":914,"æ¬¡":915,"åĩł":916,"æľºåĻ¨":917,"å±±":918,"ç»Ħ":919,"ç½ĳ":920,"æļ":921,"é¸":922,"æľĪ":923,"æıĲé«ĺ":924,"åĳ³":925,"è¾ĵ":926,"åĳĺ":927,"éĢł":928,"æĪ·":929,"çİ¯ä¿Ŀ":930,"éĩĳ":931,"ç¿":932,"ç®¡":933,"çļĦæķ":934,"æ£":935,"ç¦":936,"åĲĦ":937,"çº¦":938,"åĮº":939,"å¯¼":940,"éĺ³":941,"å®ĥä»¬":942,"å¿«":943,"èĢĥ":944,"ä¼ł":945,"åĲĮæĹ¶":946,"å¹¿":947,"æĸ¹å¼ı":948,"è®¡ç®Ĺ":949,"æĸ¹æ³ķ":950,"ä¸ŃæıĲåıĸ":951,"æ¸©":952,"çĹħ":953,"é¡¹":954,"åĲĳ":955,"æĳĺè¦ģ":956,"ç»Ļå®ļçļĦ":957,"çĬ":958,"åĲ«":959,"ä»¥åıĬ":960,"æĺ¯ä¸Ģä¸ª":961,"ä¼ĺ":962,"ä¸»é¢ĺ":963,"ä»·":964,"è®¤":965,"ç¤º":966,"åĲĥ":967,"åĩĨ":968,"æĸ¹éĿ¢":969,"è°ĥ":970,"è¯»":971,"å®Į":972,"èĮ":973,"åºĶè¯¥":974,"åĪ°äºĨ":975,"åŁº":976,"åħ±":977,"ä¸Ķ":978,"ä¸ŃåĽ½":979,"è§Ĩ":980,"ç»Ń":981,"åı¤":982,"å¢ŀ":983,"å°½":984,"æĬ¥":985,"ä¸ĸçķĮ":986,"èıľ":987,"æĪĺ":988,"èĥ½å¤Ł":989,"äººä»¬":990,"ç©¶":991,"ä¾ĭå¦Ĥ":992,"åĩıå°ĳ":993,"ä¸¤ä¸ª":994,"åĽŀçŃĶ":995,"åŁİå¸Ĥ":996,"åħĭ":997,"å§ĭ":998,"åı²":999,"è§ī":1000,"è¯Ħ":1001,"åı¥è¯Ŀ":1002,"è¥":1003,"è½»":1004,"Â·":1005,"åĨħå®¹":1006,"è®¸":1007,"åĮ»çĸĹ":1008,"èįĲ":1009,"çĭĹ":1010,"ä¿ĿæĬ¤":1011,"è¶Ĭ":1012,"åįķè¯į":1013,"å¼ķ":1014,"åĢĻ":1015,"è¯ī":1016,"ä¹°":1017,"åŃĺ":1018,"åħ¶ä»ĸ":1019,"æĺĵ":1020,"è¥¿":1021,"è¶£":1022,"åĽłæŃ¤":1023,"æİ¥":1024,"Ķç©¶":1025,"æµĭ":1026,"èµĦ":1027,"å¤į":1028,"åĬŁ":1029,"åĲ¦":1030,"çİ°åľ¨":1031,"å¤ĩ":1032,"æĲ":1033,"å®¢":1034,"æİ¨èįĲ":1035,"æĪĸèĢħ":1036,"è¯¯":1037,"åĥ":1038,"ç«ĭ":1039,"åħĥ":1040,"äºĨä¸Ģ":1041,"åĪĨç±»":1042,"è¶³":1043,"æŁ¥":1044,"é¥®":1045,"èĩ´":1046,"ä»Ĭå¤©":1047,"æŃĮ":1048,"åĳ¨":1049,"å¤ĦçĲĨ":1050,"åĳĬè¯ī":1051,"æķĻ":1052,"æĸ¯":1053,"20":1054,"ç¬¬":1055,"æŀĲ":1056,"åĮĹ":1057,"æĢģ":1058,"èĳ":1059,"å¤´":1060,"ç»Ļåĩº":1061,"çİĩ":1062,"å²":1063,"çĻ½":1064,"åĶ":1065,"ç´ł":1066,"åĽŃ":1067,"è·¯":1068,"æľĭ":1069,"æİ¢":1070,"èģĶ":1071,"çĶ·":1072,"çľŁ":1073,"æ»¡":1074,"åĪĨæŀĲ":1075,"ï¼ī":1076,"ä½¿åħ¶":1077,"æİĴ":1078,"çħ":1079,"ç»Ĩ":1080,"åħ¨çĲĥ":1081,"æĶ¯":1082,"æľĭåıĭ":1083,"éªĮ":1084,"æľĽ":1085,"ä¸ªäºº":1086,"çº¿":1087,"æĸ½":1088,"åĨį":1089,"æ¬¾":1090,"è±¡":1091,"¹æŀľ":1092,"åħĪ":1093,"ä½Ĩæĺ¯":1094,"çŃĶæ¡Ī":1095,"ä»½":1096,"åıĤ":1097,"èĭ¹æŀľ":1098,"éĹ»":1099,"äºĮ":1100,"ä¾¿":1101,"å¥³":1102,"åįģ":1103,"éĩĩ":1104,"ç§ĳæĬĢ":1105,"åĽ¾":1106,"åĥı":1107,"å¾Īå¤ļ":1108,"å·²ç»ı":1109,"éĹ¨":1110,"çīĩ":1111,"ç³ĸ":1112,"æĶ¿":1113,"ç§¯":1114,"ä¹ĭä¸Ģ":1115,"æĽ´å¤ļ":1116,"ä»¥ä¸ĭåı¥åŃĲ":1117,"åĨµ":1118,"éĶĻè¯¯":1119,"èĻĳ":1120,"ç¥ŀ":1121,"ï¼ļâĢľ":1122,"ä»ĭ":1123,"æķ´":1124,"çĽ¸åħ³":1125,"è¿ĲåĬ¨":1126,"å°Ŀ":1127,"ç§°":1128,"éĤ£ä¹Ī":1129,"åı·":1130,"çļĦæĥ":1131,"æīĵ":1132,"åĪĴ":1133,"å¡":1134,"èİ·":1135,"çĥŃ":1136,"æłĩé¢ĺ":1137,"è®¸å¤ļ":1138,"åŃ£":1139,"æĬĬ":1140,"ä¿®":1141,"ç´¢":1142,"è°¢":1143,"æ¢":1144,"è§ģ":1145,"çı":1146,"ä¿ĿæĮģ":1147,"éļ¾":1148,"æĿ¡":1149,"æĸĩåĮĸ":1150,"æĿ¾":1151,"åĬ¨çī©":1152,"æĺ¯ä»Ģä¹Ī":1153,"éĢŁ":1154,"åºı":1155,"10":1156,"åħ¶ä¸Ń":1157,"è§Ħ":1158,"æ¼Ķ":1159,"äº§åĵģ":1160,"ħäºĭ":1161,"éĻ©":1162,"ä¸ĭéĿ¢":1163,"æĹłæ³ķ":1164,"æ´»åĬ¨":1165,"å¸ĥ":1166,"åĲ¬":1167,"çłĶç©¶":1168,"çļĦäºº":1169,"æ´ģ":1170,"åıį":1171,"èĭ±":1172,"è®°":1173,"åĪĻ":1174,"åĳĬè¯īæĪĳ":1175,"åħ·ä½ĵ":1176,"ç²¾":1177,"æĶ¶":1178,"ï¼Ī":1179,"çĶŁæĪĲä¸Ģä¸ª":1180,"ãĢĤ\\":1181,"çĮ«":1182,"è´Ń":1183,"æĻļ":1184,"æĺ¯ä¸Ģç§į":1185,"æĸĩæ¡Ī":1186,"å¤ı":1187,"åħ³éĶ®è¯į":1188,"æľĢè¿ĳ":1189,"åİĨåı²":1190,"äº¬":1191,"æĪĳæĥ³":1192,"å¦":1193,"åĳ½":1194,"çļĦåı¥åŃĲ":1195,"èĩªå·±çļĦ":1196,"åĢ¼":1197,"æŁĵ":1198,"è§£åĨ³":1199,"ç³»ç»Ł":1200,"çĽ´":1201,"åħ´":1202,"éŁ³ä¹Ĳ":1203,"éļı":1204,"ä½İ":1205,"æ¨¡åŀĭ":1206,"è®²":1207,"éħį":1208,"é©¬":1209,"ç¢":1210,"æĢ»ç»ĵ":1211,"è¾ĳ":1212,"èĩ³":1213,"åıĺåĮĸ":1214,"äºĶ":1215,"ä¸Ģæ®µ":1216,"åĭ":1217,"è¾ĥ":1218,"åįĹ":1219,"èĢģ":1220,"æ¶Ī":1221,"è¾ĵåħ¥":1222,"æħ":1223,"æľįåĬ¡":1224,"æīĢæľī":1225,"çĭ¬":1226,"é¦Ļ":1227,"ï¼Ł<|":1228,"åĲ¸":1229,"ä½łçļĦ":1230,"æŃ¤å¤ĸ":1231,"æīį":1232,"çļĦæĦ":1233,"æľºåĻ¨åŃ¦ä¹ł":1234,"æį¢":1235,"ç»ĥ":1236,"è®¾è®¡":1237,"ç§ĭ":1238,"èµĽ":1239,"ç»į":1240,"éĩĬ":1241,"ä¸½":1242,"èº«ä½ĵ":1243,"è½¬":1244,"èĤ²":1245,"å½ĵçĦ¶":1246,"æ²»":1247,"ä»»åĬ¡":1248,"å¸¦æĿ¥":1249,"è®¡ç®Ĺæľº":1250,"å®īåħ¨":1251,"å¤±":1252,"æŀĦ":1253,"æĸ°éĹ»":1254,"éĽ¨":1255,"è¶ħ":1256,"ä»ĭç»į":1257,"çŃīçŃī":1258,"è®¨":1259,"æĪĲä¸º":1260,"äº«":1261,"AI":1262,"åıĳçİ°":1263,"ç§ĳåŃ¦":1264,"åįİ":1265,"ä¸ľ":1266,"å£«":1267,"åħħ":1268,"å¨":1269,"æĸ°çļĦ":1270,"å¼ł":1271,"éĺŁ":1272,"æĹ©":1273,"è®¤ä¸º":1274,"ç¤¾ä¼ļ":1275,"è¡£":1276,"çļĦéĹ®é¢ĺ":1277,"å°Ŀè¯ķ":1278,"åį³":1279,"è£ħ":1280,"è¦ģæ±Ĥ":1281,"çĬ¶":1282,"çŃĸ":1283,"èĽ":1284,"åĳ¢":1285,"é²":1286,"æ¤":1287,"çļĦä¿¡æģ¯":1288,"æĿĲ":1289,"åĽĽ":1290,"æĪĳä»¬çļĦ":1291,"åħ·æľī":1292,"æĹħæ¸¸":1293,"è¯ĨåĪ«":1294,"æ¦Ĥ":1295,"è§Ĵ":1296,"çļĦæĥħ":1297,"æ°ĳ":1298,"æĪĳçļĦ":1299,"åİħ":1300,"æīĢä»¥":1301,"éĢĤåĲĪ":1302,"æ¯Ķå¦Ĥ":1303,"èĲ¥":1304,"å°Ķ":1305,"ç¾İåĽ½":1306,"éĺ²":1307,"åĬ¿":1308,"å°ıè¯´":1309,"èħ":1310,"å¿ħ":1311,"è¡¨è¾¾":1312,"çŁ¥éģĵ":1313,"çļĦå½±åĵį":1314,"çļĦä¸Ģ":1315,"åįĩ":1316,"ç¿»":1317,"ç»´":1318,"èĥ½åĬĽ":1319,"åħį":1320,"æĭī":1321,"ä½łåı¯ä»¥":1322,"èĤī":1323,"åĦ":1324,"éĽĨ":1325,"åľ°çĲĥ":1326,"è¾¹":1327,"ä¹ĭéĹ´":1328,"æĺ¯åĲ¦":1329,"æļĸ":1330,"åİĭ":1331,"æ½":1332,"æŃ£åľ¨":1333,"æŀĹ":1334,"çļĦæĬ":1335,"çĲĨè§£":1336,"æĺ¥":1337,"æĥħæĦŁ":1338,"äºĴ":1339,"æĤ¨åı¯ä»¥":1340,"é»ĳ":1341,"ªæĸ½":1342,"å¼Ģå§ĭ":1343,"ç©¿":1344,"æĺ¾":1345,"çª":1346,"çļĦåºĶçĶ¨":1347,"æĪ¿":1348,"¡æŁĵ":1349,"å£°":1350,"ä¸ĵ":1351,"äºĨè§£":1352,"åı°":1353,"è¿ľ":1354,"è®¡åĪĴ":1355,"çħ§":1356,"èĳĹ":1357,"éĻ¤":1358,"ä¸ĩ":1359,"éĻį":1360,"å¤ªéĺ³":1361,"èµ°":1362,"åĸĦ":1363,"è´¹":1364,"å¯¼èĩ´":1365,"ç§¯æŀģ":1366,"æ®µèĲ½":1367,"ä¼¼":1368,"ç¼ĸè¾ĳ":1369,"ç¦»":1370,"å·´":1371,"å¸Į":1372,"å®ŀçİ°":1373,"ä¸Ģèµ·":1374,"èīº":1375,"æĴ":1376,"å¯»":1377,"é¥®é£Ł":1378,"æĪı":1379,"çİĭ":1380,"çļĦä¸»è¦ģ":1381,"çļĦæł":1382,"ç®Ģæ´ģ":1383,"çĦ¶åĲİ":1384,"å·§":1385,"åħ»":1386,"ãĢĤ\"":1387,"æĦŁåĪ°":1388,"éĶĢ":1389,"ç½®":1390,"æĸĩç«łä¸ŃæıĲåıĸ":1391,"æ³Ľ":1392,"çİ©":1393,"å¯¹äºİ":1394,"åŃĺåľ¨":1395,"æĸĩç«łä¸Ń":1396,"ä½ľä¸º":1397,"çģ«":1398,"æľīåħ³":1399,"åĦ¿":1400,"èĩªåĬ¨":1401,"å¸®æĪĳ":1402,"è¯ĳ":1403,"å¾·":1404,"èŀ":1405,"äºļ":1406,"æĢİ":1407,"æ±¡æŁĵ":1408,"åĴĸ":1409,"é£ŀ":1410,"åºĹ":1411,"é»Ħ":1412,"éĩįåĨĻ":1413,"å¯Į":1414,"å¸Ĥåľº":1415,"æĽ´å¥½":1416,"é¤Ĳåİħ":1417,"å¦Ĥæŀľä½ł":1418,"äºĳ":1419,"èĢĥèĻĳ":1420,"çīĽ":1421,"åł":1422,"éĻħ":1423,"åĲĦç§į":1424,"è§ĤçĤ¹":1425,"çĶ»":1426,"åĽ´":1427,"åı¦":1428,"èįī":1429,"ç»Ī":1430,"ä¸įæĸŃ":1431,"è¯Ńæ³ķ":1432,"èĽĭ":1433,"è§£éĩĬ":1434,"æĹħè¡Į":1435,"ä¸Ģç¯ĩ":1436,"åķ¡":1437,"å¤ľ":1438,"ä»ĸçļĦ":1439,"çļĦæ°":1440,"åĴĸåķ¡":1441,"æµİ":1442,"è¯·éĹ®":1443,"çļĦåľ°":1444,"æľīè¶£":1445,"åıĪ":1446,"è¿ĺæľī":1447,"çĶ¨æĪ·":1448,"åŃ©":1449,"çĳ":1450,"å¤§çļĦ":1451,"çĨ":1452,"å¸Ī":1453,"ç®Ģåįķ":1454,"å®ŀä½ĵ":1455,"éħĴ":1456,"å¹¿æ³Ľ":1457,"ç«Ļ":1458,"åĮĹäº¬":1459,"æ³¨æĦı":1460,"æ¹":1461,"å®ĮæĪĲ":1462,"ä¹Łåı¯ä»¥":1463,"æī¾åĪ°":1464,"ç¿»è¯ĳ":1465,"æ°ĶåĢĻ":1466,"å¯Ĩ":1467,"äº¤éĢļ":1468,"ä»¤":1469,"ĳæĪĺ":1470,"çĻ¾":1471,"çļĦåıĳå±ķ":1472,"èŀį":1473,"èĥ½æºĲ":1474,"ä»¥ä¸ĭæĸĩæľ¬":1475,"å®¤":1476,"è¿Ļæ®µ":1477,"ç»¿":1478,"åĮħåĲ«":1479,"ç±³":1480,"ç¬¦":1481,"é£Łçī©":1482,"åķĨåĵģ":1483,"å¹¶ä¸Ķ":1484,"æİ§":1485,"ä¸¾":1486,"åºľ":1487,"ä¸Ģç§į":1488,"å¾ĭ":1489,"åĩłä¸ª":1490,"å¿µ":1491,"ä¸īä¸ª":1492,"èĪĴ":1493,"èĵ":1494,"éĢļå¸¸":1495,"çļĦæĢ":1496,"æĽ¿":1497,"åĪ¤":1498,"åĵªäºĽ":1499,"æķ£":1500,"çļĦçĶµå½±":1501,"æĺ¨":1502,"ç»ıæµİ":1503,"æİªæĸ½":1504,"éĻĲ":1505,"æĤ¨çļĦ":1506,"å®Ŀ":1507,"è¯ģ":1508,"æĿİ":1509,"æŁĲ":1510,"æĪĳåı¯ä»¥":1511,"èģĮ":1512,"å¢ŀåĬł":1513,"åħ³ç³»":1514,"é¾":1515,"èģĬ":1516,"åī§":1517,"çĶ±äºİ":1518,"åĩĨç¡®":1519,"æłĳ":1520,"ç»ĩ":1521,"é¦Ĩ":1522,"çļĦæķ°":1523,"å¾®":1524,"æ¿":1525,"å±ħ":1526,"è´¨éĩı":1527,"è´Ł":1528,"é±":1529,"æĭ¥":1530,"åĪ©çĶ¨":1531,"çļĦæĸĩæľ¬":1532,"éĺħ":1533,"çİ°ä»£":1534,"é±¼":1535,"ä¸įèĥ½":1536,"è¯Ĭ":1537,"æ©":1538,"æĪĲåĬŁ":1539,"éĥ½æĺ¯":1540,"ç±»åŀĭ":1541,"ç®¡çĲĨ":1542,"å¸ĮæľĽ":1543,"å®³":1544,"çļĦéĩįè¦ģ":1545,"ä¸įåĲĮçļĦ":1546,"çīĮ":1547,"åħ¬åĽŃ":1548,"å¾Ģ":1549,"æĿ¯":1550,"èĩªçĦ¶è¯Ńè¨Ģ":1551,"æĵ":1552,"ä¼ģ":1553,"ä»»ä½ķ":1554,"è¿ŀ":1555,"å¹²":1556,"æł¹æį®ç»Ļå®ļçļĦ":1557,"ç³ĸæŀľ":1558,"æ²Ļ":1559,"æĽ²":1560,"å¦ĤæŀľæĤ¨":1561,"è¿Ļç§į":1562,"åĲįç§°":1563,"èİ·å¾Ĺ":1564,"åħ¸":1565,"ĊĊ":1566,"æķħäºĭ":1567,"æĥħåĨµ":1568,"è¿ĺæĺ¯":1569,"èĻ½":1570,"åı¶":1571,"æķĻèĤ²":1572,"çļĦæĺ¯":1573,"éº":1574,"æĮģç»Ń":1575,"é¸Ł":1576,"ä¼Ĺ":1577,"çļĦå¤©æ°Ķ":1578,"ç®Ĺæ³ķ":1579,"èī²çļĦ":1580,"¾çĹħ":1581,"éģ¿":1582,"éĻ¢":1583,"å³":1584,"è®Ń":1585,"æ¥":1586,"ç»ĵæŀľ":1587,"èµ·æĿ¥":1588,"å±ŀ":1589,"åģĩ":1590,"çļĦæĦı":1591,"éĺħè¯»":1592,"åŃ¦çĶŁ":1593,"ä¸ºæĤ¨":1594,"èĦĳ":1595,"éĿĻ":1596,"è·ĳ":1597,"è½¯":1598,"00":1599,"ç¬Ķ":1600,"æĶ¿åºľ":1601,"äºĨä¸Ģä¸ª":1602,"éĩĩåıĸ":1603,"æµª":1604,"é¼":1605,"æĽ´å¥½åľ°":1606,"æĪĳä»¬åı¯ä»¥":1607,"æľīæķĪ":1608,"åĩºçİ°":1609,"äººçļĦ":1610,"å¥ĩ":1611,"è¿Ļåı¥è¯Ŀ":1612,"ä»İæĸĩç«łä¸ŃæıĲåıĸ":1613,"åª":1614,"è¯¢":1615,"ç»ľ":1616,"æ¯ıä¸ª":1617,"é¢Ħæµĭ":1618,"å¾ĹåĪ°":1619,"æĢİä¹Ī":1620,"é¢ľ":1621,"é¸¡":1622,"åĽ¢":1623,"ä»ħ":1624,"å¥¶":1625,"åĪ¶ä½ľ":1626,"çļĦæĻ":1627,"æŃ£ç¡®":1628,"çĵ":1629,"é£İæł¼":1630,"éĿĴ":1631,"ĥåľ":1632,"äººå·¥æĻºèĥ½æĬĢæľ¯":1633,"äº§çĶŁ":1634,"å¤ļå°ĳ":1635,"åŀĥåľ":1636,"åŀĥåľ¾":1637,"è¿Ļæł·":1638,"è¡Įä¸º":1639,"éĨ":1640,"èĶ":1641,"çŁ³":1642,"è¯ĬæĸŃ":1643,"çº§":1644,"è¿ĩç¨ĭ":1645,"åıĳçĶŁ":1646,"éĩįæĸ°":1647,"åºŃ":1648,"åĮ»çĶŁ":1649,"å·ŀ":1650,"åĨĽ":1651,"ä¼ĳ":1652,"çĽ®æłĩ":1653,"æ¿Ģ":1654,"äºī":1655,"å°ıçº¢":1656,"çļĦæĸĩç«ł":1657,"åĬŀ":1658,"æ¸¸æĪı":1659,"åĿĩ":1660,"çļĦç¾":1661,"èĵĿ":1662,"ç¨ĭåºı":1663,"çºł":1664,"èĻ½çĦ¶":1665,"éľĢæ±Ĥ":1666,"ä¸Ģä»½":1667,"æľ¨":1668,"è´Ńä¹°":1669,"æĮī":1670,"çĶ¨äºİ":1671,"çĸ¾çĹħ":1672,"èµĦæºĲ":1673,"çīĪ":1674,"åĳ¼":1675,"å°¼":1676,"éĥ¨åĪĨ":1677,"çļĦæİ":1678,"èī¯":1679,"å¾ģ":1680,"èĩªçĦ¶è¯Ńè¨Ģå¤ĦçĲĨ":1681,"å°½ç®¡":1682,"åĬª":1683,"éŃ":1684,"çĽĬ":1685,"éģĩ":1686,"åĨ°":1687,"éĢģ":1688,"ç¦ı":1689,"ä½ĵéªĮ":1690,"æľĢåĲİ":1691,"æ°ĶåĢĻåıĺåĮĸ":1692,"åı¯èĥ½ä¼ļ":1693,"ç»Ħç»ĩ":1694,"æ¯ĶèµĽ":1695,"èŃ":1696,"ä»İè¿Ļç¯ĩæĸĩç«ł":1697,"äº®":1698,"èį¯":1699,"å½©":1700,"ç¼ĵ":1701,"åı¯ä»¥å¸®åĬ©":1702,"æ´ĭ":1703,"æ¯Ķè¾ĥ":1704,"éĩįè¦ģçļĦ":1705,"é²ľ":1706,"åİĭåĬĽ":1707,"æĮĳæĪĺ":1708,"æİ¢ç´¢":1709,"ç½ĳç»ľ":1710,"åĬªåĬĽ":1711,"ä¸įæĺ¯":1712,"ä½łèĥ½":1713,"ä¸¥":1714,"å°ļ":1715,"ä½ľçĶ¨":1716,"éŀ":1717,"è¡¨ç¤º":1718,"ä¹Łæĺ¯":1719,"ä¼ģä¸ļ":1720,"åį¡":1721,"æ£Ģ":1722,"åĪ¤æĸŃ":1723,"ç®ĢçŁŃ":1724,"äºĭä»¶":1725,"æ²¹":1726,"æĸĩåŃĹ":1727,"è¯Ħè®º":1728,"çļĦæĬĢ":1729,"æ´²":1730,"æ¤į":1731,"ä½¿åħ¶æĽ´åĬł":1732,"èĪĴéĢĤ":1733,"è¿İ":1734,"éģ¿åħį":1735,"èĮĥ":1736,"æ»©":1737,"åĲ§":1738,"æĲŃ":1739,"ç¡®å®ļ":1740,"è®²è¿°":1741,"å¾ħ":1742,"æīįèĥ½":1743,"æĬ±":1744,"çļĦæĸ¹æ³ķ":1745,"ç½Ĺ":1746,"æĬķ":1747,"çļĦæī":1748,"å½Ĵ":1749,"çłģ":1750,"è¿Ļæĺ¯":1751,"æĻ®":1752,"åĪ»":1753,"âĢĿï¼Į":1754,"çļĦç¾İ":1755,"è¿½":1756,"ä¸´":1757,"é¢ĺçĽ®":1758,"æĭ¥æľī":1759,"çĸ«":1760,"ä»į":1761,"æ±½":1762,"äº²":1763,"æķĪçİĩ":1764,"åĶ®":1765,"æ¯į":1766,"ç¡®ä¿Ŀ":1767,"ãĢĤâĢĿ<|":1768,"è¡¨çİ°":1769,"çĤ¼":1770,"æ°´æŀľ":1771,"æĺ¨å¤©":1772,"æĸ¹æ¡Ī":1773,"ä¹īè¯į":1774,"æ¦Ĥæĭ¬":1775,"åĬŁèĥ½":1776,"éĥ¨çĶµå½±":1777,"åħ³æ³¨":1778,"çľ¼":1779,"éĩİ":1780,"æĺİå¤©":1781,"å½ĵåľ°":1782,"æĩ":1783,"ä»·æł¼":1784,"åĪĩ":1785,"æĿĤ":1786,"å±Ĥ":1787,"åĿĹ":1788,"æĶ¹åıĺ":1789,"æ²»çĸĹ":1790,"è¾ĵåĩº":1791,"çļĦæĳ":1792,"åĿļ":1793,"è®¨è®º":1794,"åĬłåħ¥":1795,"äººå·¥æĻºèĥ½åľ¨":1796,"åıĤåĬł":1797,"æł¡":1798,"éŀĭ":1799,"çĶµåŃĲ":1800,"çĶŁæĢģ":1801,"æľīå¾Īå¤ļ":1802,"çķĻ":1803,"è®Ńç»ĥ":1804,"ç¤¾äº¤":1805,"è£¤":1806,"ä¸Ģåı¥è¯Ŀ":1807,"èĥľ":1808,"æ³¢":1809,"ç¼º":1810,"çļ®":1811,"ä¸Ńå¿ĥ":1812,"èľ":1813,"ä¸Ģé¦ĸ":1814,"çĥ¤":1815,"éĺ¿":1816,"æ¼«":1817,"æľīä»Ģä¹Ī":1818,"æĪĳåĸľæ¬¢":1819,"äº«åıĹ":1820,"æ¯ıå¤©":1821,"æ²³":1822,"å®ĥçļĦ":1823,"æ¢¦":1824,"è¡ĮåĬ¨":1825,"è¯¦":1826,"ä¸ĬçļĦ":1827,"å¨ģ":1828,"å®¶åºŃ":1829,"è¯ĹæŃĮ":1830,"åĨ¬":1831,"æĶ¾æĿ¾":1832,"æĹ¶åĢĻ":1833,"èĴ":1834,"èĳĹåĲį":1835,"éĤ®":1836,"åĪĽéĢł":1837,"æĭŁ":1838,"åı¤è¯Ĺ":1839,"è¿Ļæĺ¯ä¸Ģ":1840,"é£İéĻ©":1841,"âĢĿãĢĤ":1842,"èīºæľ¯":1843,"æĪĲè¯Ń":1844,"åĤ":1845,"åĪĽæĦı":1846,"æİ§åĪ¶":1847,"é¢Ĺ":1848,"æĿ¥è¶Ĭ":1849,"ä¸ºäºĨ":1850,"æĬ½":1851,"æĢ§åĴĮ":1852,"è¿ĺåı¯ä»¥":1853,"ç¾İä¸½":1854,"åįĥ":1855,"æĶ¯æĮģ":1856,"é£Łåĵģ":1857,"å°±æĺ¯":1858,"æĶ¹åĨĻ":1859,"è¶ĬæĿ¥è¶Ĭ":1860,"ä½³":1861,"èĶ¬":1862,"çľł":1863,"çļĦå»ºè®®":1864,"åĽ°":1865,"é¡»":1866,"çļĦæµ":1867,"çĿ¡":1868,"åİŁåĽł":1869,"éĺ³åħī":1870,"å°Ĩåħ¶":1871,"è¡Įä¸ļ":1872,"ä¸ºä»Ģä¹Ī":1873,"èĥĮ":1874,"çĶŁåĳ½":1875,"è¶ĭ":1876,"åįĪ":1877,"åī©":1878,"ä¼¤":1879,"çĶŁäº§":1880,"çĽĳ":1881,"èķ":1882,"ä½ı":1883,"åİ»äºĨ":1884,"ä¼łç»Ł":1885,"é¢ľèī²":1886,"çļĦæķħäºĭ":1887,"å½ĵçĦ¶åı¯ä»¥":1888,"çĶŁçī©":1889,"æ±½è½¦":1890,"çĽ®åīį":1891,"ä¸Ģåıª":1892,"éĩĳèŀį":1893,"æ½®":1894,"æ·»":1895,"æĶ¹åĸĦ":1896,"çģµ":1897,"ä¸ĬæľĢ":1898,"è¡¡":1899,"æĪĳä¼ļ":1900,"æľĢç»Ī":1901,"åį«":1902,"å¼Ĥ":1903,"çķ¥":1904,"çł´":1905,"ä¸°":1906,"åº§":1907,"å¾Īå¥½":1908,"çļĦæłĩ":1909,"åªĴ":1910,"è¯·ä½ł":1911,"åĵĪ":1912,"åĨ³å®ļ":1913,"ç¥¨":1914,"å³°":1915,"è¯¦ç»Ĩ":1916,"æĽ´å¤ļçļĦ":1917,"åŁºäºİ":1918,"çĩ":1919,"ä¸įéĶĻ":1920,"åħ´è¶£":1921,"å¹»":1922,"ä¿®æĶ¹":1923,"åĩĨå¤ĩ":1924,"åľºæĻ¯":1925,"åį°":1926,"èĶ¬èıľ":1927,"åı¦å¤ĸ":1928,"éĴŁ":1929,"ä¼¦":1930,"é©¾":1931,"éĴ±":1932,"éĶ»":1933,"çļĦæŃ":1934,"çªģ":1935,"æĹ¨":1936,"çĦ¦":1937,"äºĭæĥħ":1938,"éĶ»çĤ¼":1939,"æ·±åº¦":1940,"äººåĲį":1941,"é¹":1942,"æīĭæľº":1943,"æĳĦ":1944,"æĽ¿æį¢":1945,"é¥Ń":1946,"çķħ":1947,"ä»İèĢĮ":1948,"å¥Ĺ":1949,"åıĺå¾Ĺ":1950,"å¤ıå¤©":1951,"åıĹåĪ°":1952,"å¡ĳ":1953,"è¶ĭåĬ¿":1954,"å½ķ":1955,"ä»İè¿Ļç¯ĩæĸĩç«łä¸ŃæıĲåıĸ":1956,"åľŁ":1957,"å¤§éĩı":1958,"ä¸Ģæ¬¡":1959,"ä¹ĭéĹ´çļĦ":1960,"å¯»æī¾":1961,"æĥ³è¦ģ":1962,"ä¸ªèĭ¹æŀľ":1963,"æĪĳä»¬éľĢè¦ģ":1964,"å®ĺ":1965,"é¢ĳ":1966,"æ¯Ľ":1967,"æıĲåĩº":1968,"ï¼ģ<|":1969,"ä»Ģä¹Īæĺ¯":1970,"èĮ¶":1971,"ä¿ĥ":1972,"æĸĩæľ¬ä¸Ń":1973,"åĵģçīĮ":1974,"æ±Ł":1975,"éĹ²":1976,"åĸĿ":1977,"æ¯ıä¸ªäºº":1978,"çļĦçŁ":1979,"çļĦæ¸":1980,"åĲįåŃĹ":1981,"åıĮ":1982,"ç´§":1983,"é©¶":1984,"åħħæ»¡":1985,"æĥĬ":1986,"è¿Ļä¸ªéĹ®é¢ĺ":1987,"æıĲåĪ°":1988,"åĨ·":1989,"åı¯æĮģç»Ń":1990,"å¿ĥçĲĨ":1991,"ä¸ĵä¸ļ":1992,"æĤ£":1993,"åĨĻä¸Ģä¸ª":1994,"æŃī":1995,"åĩ»":1996,"è´£":1997,"ç¼ĸç¨ĭ":1998,"çıŃ":1999,"ç¬ĳ":2000,"é¡º":2001,"é¦ĸåħĪ":2002,"åºķ":2003,"è®©æĪĳ":2004,"çĸĳ":2005,"æķ°åŃĹ":2006,"å·¥åħ·":2007,"åįļ":2008,"æĲľ":2009,"ç¤¼":2010,"å·¨":2011,"åĪĽæĸ°":2012,"åĪļ":2013,"åĪĿ":2014,"éļĲ":2015,"æľ¬æĸĩ":2016,"ä»ĸä»¬çļĦ":2017,"ä½ľèĢħ":2018,"éĵģ":2019,"åĿĲ":2020,"å²ģ":2021,"ç¾¤":2022,"çºª":2023,"19":2024,"æĬ¥éģĵ":2025,"æ¸ħæĻ":2026,"ç»ĵæŀĦ":2027,"æ±ĩ":2028,"éĩĩçĶ¨":2029,"æŃ¢":2030,"åĮ»åŃ¦":2031,"æľ«":2032,"å¥¥":2033,"æĺİäºĨ":2034,"å©":2035,"è¿Ļéĥ¨çĶµå½±":2036,"æľ¬ä¹¦":2037,"åªĴä½ĵ":2038,"è¿Ļä¸ªåı¥åŃĲ":2039,"èŃ¦":2040,"çĹĩ":2041,"ä½¿åħ¶æĽ´":2042,"è´ŁéĿ¢":2043,"éļıçĿĢ":2044,"å±Ģ":2045,"æĿĲæĸĻ":2046,"æľĹ":2047,"åĽłç´ł":2048,"ç¾İé£Ł":2049,"ä½ľåĵģ":2050,"ç¿»è¯ĳæĪĲ":2051,"ä»·åĢ¼":2052,"çŁ¥è¯Ĩ":2053,"æĬ±æŃī":2054,"æĿĥ":2055,"èĹ":2056,"çļĦåħ³éĶ®":2057,"å¼Ģåıĳ":2058,"å®£":2059,"è§īå¾Ĺ":2060,"ç»ŃåĨĻ":2061,"æķ°åŃ¦":2062,"æ¬§":2063,"éĢĲ":2064,"éĢłæĪĲ":2065,"ç§ĺ":2066,"é¾Ļ":2067,"éĢı":2068,"åľ°åĮº":2069,"éĤ®ä»¶":2070,"çī¹åĪ«":2071,"éĽª":2072,"ç»Ŀ":2073,"èĢĮä¸Ķ":2074,"ç»ª":2075,"çľģ":2076,"çľĭåĪ°":2077,"é¡¹çĽ®":2078,"å®¢æĪ·":2079,"èĪŀ":2080,"æıĲåıĸåĩº":2081,"ä¼ļè®®":2082,"éĴĪ":2083,"ä¸įä¼ļ":2084,"æĭ¼":2085,"æ¸Ĳ":2086,"å»ºç«ĭ":2087,"çļĦæĶ":2088,"ä¸įä»ħ":2089,"èª":2090,"æĦıæĢĿ":2091,"èĸ":2092,"åĨľ":2093,"ä¾Ŀ":2094,"åĲ¸å¼ķ":2095,"å¿Ĺ":2096,"åķĨåĵģæĸĩæ¡Ī":2097,"æľĢåĸľæ¬¢":2098,"æħ¢":2099,"ä¸¤ä¸ªåı¥åŃĲ":2100,"è®¾å¤ĩ":2101,"çļĦæ¯":2102,"æľºåĻ¨äºº":2103,"ä¸Ģå®ļ":2104,"çļĦæı":2105,"Ġ\"":2106,"éĵ¶":2107,"å¿ħé¡»":2108,"æŁĶ":2109,"æķħ":2110,"è°ģ":2111,"ç§ģ":2112,"çļĦæĥħæĦŁ":2113,"è¶ħè¿ĩ":2114,"ç»ıåħ¸":2115,"åįı":2116,"æ¬¢è¿İ":2117,"åŃ©åŃĲ":2118,"æĹ¶å°ļ":2119,"èĲ¨":2120,"èĪª":2121,"å±ŀäºİ":2122,"åį´":2123,"æİ¢è®¨":2124,"ä½įç½®":2125,"éĻįä½İ":2126,"çĶµè§Ĩ":2127,"æĿ¥è¯´":2128,"çº½":2129,"ä¹ħ":2130,"çĽĸ":2131,"æ©Ļ":2132,"ä»ĭç»įäºĨ":2133,"åĬłå¼º":2134,"æ³³":2135,"çº³":2136,"èĩªçĶ±":2137,"åħ°":2138,"çŃīæĸ¹éĿ¢":2139,"ä¸ĢæŃ¥":2140,"çŃĳ":2141,"å¹¸":2142,"éĢīé¡¹":2143,"éĥ½æľī":2144,"æıĲåĪ°äºĨ":2145,"æĥ¯":2146,"å¿«éĢŁ":2147,"åħ±åĲĮ":2148,"éĢĤå½ĵ":2149,"èģĶç½ĳ":2150,"æıĲä¾Ľä¸Ģä¸ª":2151,"è¯·åĳĬè¯īæĪĳ":2152,"çļĦæĳĺè¦ģ":2153,"åģ¥èº«":2154,"è¯ŃéŁ³":2155,"æĢ§çļĦ":2156,"æ±ī":2157,"ä¼½":2158,"è¿Ļæĺ¯ä¸Ģä¸ª":2159,"è´¢":2160,"å¤§åĪ©":2161,"æľĿ":2162,"ç»Ļå®ļä¸Ģä¸ª":2163,"çī¹å¾ģ":2164,"æ¯Ĵ":2165,"æ¶ī":2166,"çī¹å®ļ":2167,"éĶĢåĶ®":2168,"æ¤įçī©":2169,"å·®":2170,"èģļ":2171,"åįĬ":2172,"åıĺæļĸ":2173,"çļĦä¸»é¢ĺ":2174,"ä¸°å¯Į":2175,"é«ĺçļĦ":2176,"å¤įæĿĤ":2177,"æ¸ħæĻ°":2178,"åı«":2179,"å®ĩ":2180,"æĲľç´¢":2181,"è°¢è°¢":2182,"çļĦç¬":2183,"çī¹çĤ¹":2184,"ç»Ļåĩºä¸Ģä¸ª":2185,"ä»£è¡¨":2186,"æŃ»":2187,"åĳ¼åĲ¸":2188,"å½¢å®¹":2189,"æ·»åĬł":2190,"è±Ĩ":2191,"å¤«":2192,"åŃ¤":2193,"æĺ¯æĮĩ":2194,"çļĦçĶŁæ´»":2195,"ä»¤äºº":2196,"åĽ¾åĥı":2197,"ç¹":2198,"ä¸ĢçĽ´":2199,"å½¢å¼ı":2200,"å¡ĳæĸĻ":2201,"ä»¥ä¸ĭæĺ¯":2202,"»åĬ¨":2203,"æī§":2204,"ç»§":2205,"é©¾é©¶":2206,"ä¸Ĭæµ·":2207,"çļĦæĮ":2208,"çļĦæķ°æį®":2209,"ľä¼½":2210,"è°Ī":2211,"èĤ¡":2212,"æĺ¯åľ¨":2213,"åİŁå§ĭ":2214,"çļĦçł":2215,"æľºä¼ļ":2216,"çļĦè¯Ŀ":2217,"åį±":2218,"æĢĿèĢĥ":2219,"æĪĳæĹłæ³ķ":2220,"çĦ¦èĻĳ":2221,"éĻĪ":2222,"âĢĶ":2223,"è´Ńçī©":2224,"èĻļ":2225,"ä»¥ä¾¿":2226,"å°ıæĺİæľī":2227,"çº½çº¦":2228,"ä¹łæĥ¯":2229,"åĬ©äºİ":2230,"æĮīçħ§":2231,"çļĦæ²":2232,"åĪ¶å®ļ":2233,"å»ºçŃĳ":2234,"æ¥¼":2235,"åľ°çĤ¹":2236,"ç½ĳç«Ļ":2237,"æ¸©åº¦":2238,"ç²ī":2239,"æ·±åº¦åŃ¦ä¹ł":2240,"ç»ıåİĨ":2241,"æĿ¿":2242,"åĩºå¤Ħ":2243,"åģļåĩº":2244,"50":2245,"è®©äºº":2246,"é¢ĦæĬ¥":2247,"äººå·¥æĻºèĥ½çļĦ":2248,"å¹´è½»":2249,"æĽ¾":2250,"çŁŃè¯Ń":2251,"æķ°éĩı":2252,"åľ¨å®¶":2253,"åĵªä¸ª":2254,"åħŃ":2255,"ä¸Ģç¯ĩæĸĩç«ł":2256,"åĬ±":2257,"ç»ĥä¹ł":2258,"çĶŁæĪĲåķĨåĵģæĸĩæ¡Ī":2259,"æĬ½åıĸ":2260,"æ°§":2261,"ãĢĭãĢģ":2262,"è¡Ĺ":2263,"çģ¾":2264,"åĲįè¯į":2265,"æĪĲè¯Ńåĩºå¤Ħ":2266,"çĪ±æĥħ":2267,"æĹ¥æľ¬":2268,"æĭ¿":2269,"å°Ħ":2270,"ä¸Ģä½į":2271,"è¡ĮæĺŁ":2272,"çļĦæĦŁ":2273,"æķ£æŃ¥":2274,"åħ¬åı¸çļĦ":2275,"ç¬¬äºĮ":2276,"åĢĭ":2277,"ä½¿å¾Ĺ":2278,"èĭ±è¯Ń":2279,"èģĮä¸ļ":2280,"çĽ¸åĲĮ":2281,"å¼ºè°ĥ":2282,"ç«¯":2283,"å°Ĩä¼ļ":2284,"çĶľ":2285,"ä½įäºİ":2286,"åĨ³çŃĸ":2287,"çļĦå°ı":2288,"æ´Ĺ":2289,"æ¸¸æ³³":2290,"æİĴæĶ¾":2291,"ç¢³":2292,"çĻ»":2293,"åı¯ä»¥éĢļè¿ĩ":2294,"çļĦæĬĢæľ¯":2295,"ç»ıå¸¸":2296,"éľ²":2297,"çĭ¬çī¹":2298,"åºĬ":2299,"è¿·":2300,"æĬĢå·§":2301,"æĦıè¯Ĩ":2302,"è¯įè¯Ń":2303,"è·Ł":2304,"ç¾İåĳ³":2305,"çĳľä¼½":2306,"åľ¨è¿Ļä¸ª":2307,"åħ±æľī":2308,"åĽ½å®¶":2309,"èĪ¬":2310,"åĲ«ä¹ī":2311,"åĢ¼å¾Ĺ":2312,"ä½Ļ":2313,"çŃīé¢ĨåŁŁ":2314,"æĦŁè§ī":2315,"åŃ¦æł¡":2316,"å¯Ĵ":2317,"å¯¹è¯Ŀ":2318,"ç©ºæ°Ķ":2319,"çļĦåįķè¯į":2320,"éĵ¾":2321,"åģľ":2322,"ç³ķ":2323,"æµģçķħ":2324,"æ£Ĵ":2325,"ç¼ĵè§£":2326,"æľīåĬ©äºİ":2327,"æĹ©ä¸Ĭ":2328,"åĪĽå»º":2329,"ä¿ĥè¿Ľ":2330,"è¿ĩåİ»":2331,"è¯·ç»ĻæĪĳ":2332,"è¯¾":2333,"æĦıä¹ī":2334,"ç¡Ģ":2335,"å°Ĩä»¥ä¸ĭ":2336,"ãĢĭãĢģãĢĬ":2337,"ä»ĺ":2338,"åŁºç¡Ģ":2339,"éĵħ":2340,"æĸ¹åĲĳ":2341,"è¿Ļæ®µæĸĩæľ¬":2342,"çĨĬ":2343,"å®ł":2344,"æīĢæľīçļĦ":2345,"è¡Ģ":2346,"åı£åĳ³":2347,"å¥ĸ":2348,"æľīä¸Ģä¸ª":2349,"å²Ľ":2350,"æĦī":2351,"ä¸ĸçķĮä¸ĬæľĢ":2352,"æ°Ķæ¸©":2353,"è¸":2354,"åħ¨çĲĥåıĺæļĸ":2355,"ä¼´":2356,"çļĦæľĢ":2357,"ä¸¥éĩį":2358,"é¡¿":2359,"äº¤æµģ":2360,"ä¼ĳéĹ²":2361,"ç§ĳåŃ¦å®¶":2362,"ç»ıéªĮ":2363,"åĲĪéĢĤ":2364,"èĦļ":2365,"æĹı":2366,"æĸĩåŃ¦":2367,"æł¹æį®ä»¥ä¸ĭ":2368,"å¤ļä¸ª":2369,"çģ¯":2370,"éĿ©":2371,"è´µ":2372,"çļĦä¸»":2373,"å®¹æĺĵ":2374,"çĮ®":2375,"ä¸įè¦ģ":2376,"å¢ŀå¼º":2377,"è¿Ļç¯ĩ":2378,"è¡¨æĺİ":2379,"çī©åĵģ":2380,"ç¹ģ":2381,"æĦ¿":2382,"æĭħ":2383,"çºłéĶĻ":2384,"å¿«ä¹Ĳ":2385,"è¢ĭ":2386,"èĲ¥åħ»":2387,"èĢĲ":2388,"æ¹ĸ":2389,"èģĶç³»":2390,"åī©ä¸ĭ":2391,"è¿ĻéĩĮ":2392,"çĥĪ":2393,"ç«¥":2394,"è¯Ħä»·":2395,"ä¸įåı¯":2396,"å¿ĺ":2397,"å¤§åŃ¦":2398,"æĬĢèĥ½":2399,"éĵħç¬Ķ":2400,"é¢Ŀ":2401,"çļĦæĦıæĢĿ":2402,"çļĦå¥½":2403,"çī©è´¨":2404,"å·¦":2405,"100":2406,"è·Ŀ":2407,"æ£ĢæŁ¥":2408,"æŃ£éĿ¢":2409,"ä¸Ģç»Ħ":2410,"éĢŁåº¦":2411,"çļĦæ°´":2412,"åģı":2413,"ä»İæĸĩç«łä¸ŃæıĲåıĸåĩº":2414,"12":2415,"åŁºæľ¬":2416,"æĲŃéħį":2417,"æĹ¥æľŁ":2418,"ä¸ĭåĪĹ":2419,"è¯Ńè¨Ģæ¨¡åŀĭ":2420,"çļĦéĩįè¦ģæĢ§":2421,"..":2422,"åĪĹè¡¨":2423,"çĶµèĦĳ":2424,"å¸¸è§ģ":2425,"åĿı":2426,"çļĦçĪ":2427,"ä¸ĭæĸĩ":2428,"çļĦç¤":2429,"åĩī":2430,"ç±į":2431,"æĻļä¸Ĭ":2432,"çļĦæ´":2433,"éŁ©":2434,"åħĭåĬĽ":2435,"ä¹Ŀ":2436,"åĲĮä¹īè¯į":2437,"çĽ¸ä¼¼":2438,"ä¸įè¿ĩ":2439,"è´§":2440,"æ²ī":2441,"å·§åħĭåĬĽ":2442,"çļĦæ°Ķ":2443,"èĿ":2444,"å¤ļç§į":2445,"æµ·æ´ĭ":2446,"é¼ĵ":2447,"è°·":2448,"æĪ·å¤ĸ":2449,"ä»¿":2450,"ç§ĳå¹»":2451,"åİļ":2452,"éĽħ":2453,"å°ıæĹ¶":2454,"åĲĮæĹ¶ä¹Ł":2455,"èµı":2456,"è§Ĩè§ī":2457,"æ¶īåıĬ":2458,"ç»¿èī²":2459,"ä¸ĭæĿ¥":2460,"æļ´":2461,"é¥°":2462,"è¯·æıĲä¾Ľ":2463,"å¿Ĩ":2464,"è½¯ä»¶":2465,"æ´ŀ":2466,"äººåĳĺ":2467,"ä¸ªç³ĸæŀľ":2468,"è¯Ńæ³ķéĶĻè¯¯":2469,"çļĦåĨħå®¹":2470,"åı£æĦŁ":2471,"åĭĩ":2472,"å¤ıåŃ£":2473,"åı³":2474,"åĨł":2475,"ä»įçĦ¶":2476,"èİ·åıĸ":2477,"å¹³è¡¡":2478,"æľīäºĽ":2479,"åľĨ":2480,"å®łçī©":2481,"æ£®":2482,"ç³»åĪĹ":2483,"åĬĽåĴĮ":2484,"æ°´å¹³":2485,"åĪĽä½ľ":2486,"æĿ¡ä»¶":2487,"æĹ¥å¸¸":2488,"æĪĳä¸į":2489,"çİ¯å¢ĥä¿ĿæĬ¤":2490,"è¯įæ±ĩ":2491,"å®½":2492,"åıĹæ¬¢è¿İ":2493,"è¿Ļå®¶":2494,"åĲĪä½ľ":2495,"èĩªæĪĳ":2496,"éĨĴ":2497,"ç»ĦæĪĲ":2498,"é»İ":2499,"è®©ä½ł":2500,"èĮĥåĽ´":2501,"éĢĶ":2502,"æĬ¥åĳĬ":2503,"ç«ŀ":2504,"ç»§ç»Ń":2505,"äºĨä¸ĢäºĽ":2506,"åĨĻä½ľ":2507,"æĴŃ":2508,"è·³":2509,"åĨĴ":2510,"æ»ĳ":2511,"__":2512,"ç¼ĸåĨĻ":2513,"æĭ¼åĨĻ":2514,"ç§Ģ":2515,"åıªæľī":2516,"åºĶå¯¹":2517,"å°Ĭ":2518,"å½¢æĪĲ":2519,"éĿ¢ä¸´":2520,"æĪĳå¾Ī":2521,"å®Ļ":2522,"å®«":2523,"åı¯ä»¥åľ¨":2524,"ç£":2525,"çļĦåľ°æĸ¹":2526,"çļĦæĸ¹å¼ı":2527,"è§Ĵèī²":2528,"å¯Ł":2529,"æĻ¯çĤ¹":2530,"äºĴèģĶç½ĳ":2531,"åıĤä¸İ":2532,"18":2533,"äººçī©":2534,"æĽ´å¥½çļĦ":2535,"çļĦé£Łçī©":2536,"ä¹ĺ":2537,"åŃ£èĬĤ":2538,"çļĦæ®":2539,"å®ĩå®Ļ":2540,"çļĦä¸»è¦ģè§ĤçĤ¹":2541,"å½ĵåīį":2542,"çļĦæĹ¶éĹ´":2543,"ä¾ĭåŃĲ":2544,"è¿ĽæŃ¥":2545,"æķĪæŀľ":2546,"åħ«":2547,"çľĭçĶµå½±":2548,"æĪĳéľĢè¦ģ":2549,"åĪĨäº«":2550,"æĿĳ":2551,"ç¤¾äº¤åªĴä½ĵ":2552,"æĦŁè°¢":2553,"æľīè¶£çļĦ":2554,"éĻĦ":2555,"ä¸ªæĢ§":2556,"åĪĹåĩº":2557,"å¡Ķ":2558,"ä¿Ŀåģ¥":2559,"åĪĨéĴŁ":2560,"åĳ¨æľ«":2561,"çİī":2562,"ä¸Ģæł·":2563,"çļĦæłĩé¢ĺ":2564,"å®ŀéĻħ":2565,"çİ°å®ŀ":2566,"æ»¡è¶³":2567,"éħ±":2568,"æµĵ":2569,"30":2570,"èĥĮæĻ¯":2571,"åºŁ":2572,"æķ´ä¸ª":2573,"ä¸ĥ":2574,"æĬĺ":2575,"å®Ī":2576,"ç±»åĪ«":2577,"\"<|":2578,"æľªæĿ¥çļĦ":2579,"åį³åı¯":2580,"äºĭå®ŀ":2581,"éģĹ":2582,"å¤ªç©º":2583,"çļĦæĹ¶åĢĻ":2584,"å°ģ":2585,"åĽ½éĻħ":2586,"å¼ķèµ·":2587,"è¡£æľį":2588,"è·ĳæŃ¥":2589,"çĽĽ":2590,"æ°¸":2591,"åħ¶ä¸ŃçļĦ":2592,"è¿Ľä¸ĢæŃ¥":2593,"ä¸Ŀ":2594,"èĨ":2595,"åĽ¢éĺŁ":2596,"è¶³çĲĥ":2597,"è¿Ļä¸Ģ":2598,"çļĦæ®µ":2599,"ç®Ģæ´ģæĺİäºĨ":2600,"éĴĪå¯¹":2601,"æĬķèµĦ":2602,"ä¸ºæĪĳ":2603,"å®¶å±ħ":2604,"çļĦæµ·":2605,"éĤ£éĩĮ":2606,"åĮ»çĸĹé¢ĨåŁŁ":2607,"æī¿":2608,"è®©æĪĳä»¬":2609,"ä¸Ńæĸĩ":2610,"åıĸå¾Ĺ":2611,"è®¢":2612,"åĵªéĩĮ":2613,"æķĳ":2614,"éĸ":2615,"ä¸ĢåĲį":2616,"éĿł":2617,"æĶ¿çŃĸ":2618,"æĺĵäºİ":2619,"çĽĺ":2620,"æİ¨èįĲä¸Ģ":2621,"å¹³åĿĩ":2622,"åĬĽéĩı":2623,"åħĥç´ł":2624,"æ©ĻåŃĲ":2625,"è´£ä»»":2626,"èĹı":2627,"æ´¾":2628,"çļĦçłĶç©¶":2629,"åľ°æĸ¹":2630,"åĺ":2631,"è¯·æıĲåıĸ":2632,"çĨŁ":2633,"çĥŁ":2634,"åĳ³éģĵ":2635,"åĩıè½»":2636,"æĻ´":2637,"æĺł":2638,"æĹ§":2639,"å¤©ç©º":2640,"èį¯çī©":2641,"çļĦæ®µèĲ½":2642,"æıĲä¾Ľä¸ĢäºĽ":2643,"å¢ŀéķ¿":2644,"é«ĺæķĪ":2645,"å¹¸ç¦ı":2646,"æĩĤ":2647,"èĦĤ":2648,"æł¹æį®æıĲä¾Ľ":2649,"åľ¨çº¿":2650,"è½¬æį¢":2651,"æĥħèĬĤ":2652,"å»ºè®®æĤ¨":2653,"ä»¥ä¸ĭæĺ¯ä¸Ģ":2654,"åĶ±":2655,"é¡¾":2656,"å·´é»İ":2657,"ç¨³":2658,"è·Ŀç¦»":2659,"åħ³éĶ®ä¿¡æģ¯":2660,"çİĽ":2661,"åĪº":2662,"éĩįçĤ¹":2663,"æĢ»æĺ¯":2664,"éļĲç§ģ":2665,"åĿ¦":2666,"çļĦæĸ°":2667,"è®¿":2668,"ä¹³":2669,"æĮ¥":2670,"å®ľ":2671,"éħ¸":2672,"æ³°":2673,"ç¥ŀç»ı":2674,"çīĽå¥¶":2675,"æİĮ":2676,"éŃĶ":2677,"éº¦":2678,"æ±ł":2679,"éªĳ":2680,"ç§ĭå¤©":2681,"ä¸Ĭåįĩ":2682,"åĩºæĿ¥":2683,"æĸĩç«łä¸ŃçļĦ":2684,"æľīçĿĢ":2685,"è¯´æĺİ":2686,"åĲĪçĲĨ":2687,"15":2688,"è¶³å¤Ł":2689,"èģĬå¤©":2690,"ï¼ļãĢĬ":2691,"åĽłä¸ºå®ĥ":2692,"è¿ĩç¨ĭä¸Ń":2693,"ç¥Ŀ":2694,"å¸Ŀ":2695,"åºĶçĶ¨äºİ":2696,"ä¼°":2697,"çº¸":2698,"æļĹ":2699,"çļĦå¤§":2700,"æĪĳåľ¨":2701,"æŀ¶":2702,"æĵį":2703,"çļĦçĥ":2704,"åĨ¥":2705,"èĭı":2706,"æĦıå¤§åĪ©":2707,"ä¹¦ç±į":2708,"åĢĴ":2709,"èĲ¥éĶĢ":2710,"è¾Ĩ":2711,"çĤİ":2712,"è©":2713,"å¹³åı°":2714,"èĳĹåĲįçļĦ":2715,"åĮ»çĸĹä¿Ŀåģ¥":2716,"æĮĩåĩº":2717,"çıł":2718,"æ½ľ":2719,"åıĳå¸ĥ":2720,"æł¸":2721,"ç¬¦åĲĪ":2722,"ä¸ľè¥¿":2723,"ç»ĨèĬĤ":2724,"æģĲ":2725,"èĥ½åĲ¦":2726,"åĽ°éļ¾":2727,"ç®±":2728,"æ¬£":2729,"æİ¨çĲĨ":2730,"å®ļä¹ī":2731,"åĬ³":2732,"æĸ¹ä¾¿":2733,"åķĨä¸ļ":2734,"çĤº":2735,"ä¹¡":2736,"Ġ-":2737,"æľīåĵªäºĽ":2738,"å¤ļæł·":2739,"æĺŁæľŁ":2740,"æģ¶":2741,"çº¢èī²":2742,"å§Ĩ":2743,"æĸĩæľ¬è¿Ľè¡Į":2744,"åĢĳ":2745,"çĹĽ":2746,"å¹¿åĳĬ":2747,"æĤ£èĢħ":2748,"åĨ²":2749,"æ¨¡å¼ı":2750,"åŁ¹":2751,"çīĻ":2752,"çĽ¸åħ³çļĦ":2753,"ç¯®":2754,"æĬĹ":2755,"æ¾":2756,"èĤ¤":2757,"æµģè¡Į":2758,"çļĦæĢ»":2759,"ä¹ĭåīį":2760,"ä¹İ":2761,"ç¼©":2762,"åĬ¨ä½ľ":2763,"å¿Ļ":2764,"çĬ¶åĨµ":2765,"åĲ¯":2766,"åĪ¶éĢł":2767,"è°ĥæķ´":2768,"æĸ°éĹ»æĬ¥éģĵ":2769,"è®ºæĸĩ":2770,"åĮĸçļĦ":2771,"æĸĩæľ¬ä¸ŃçļĦ":2772,"çĥ§":2773,"æıĲåįĩ":2774,"éĽ¶":2775,"èĩªè¡Į":2776,"åīįå¾Ģ":2777,"æĢ»ç»Ł":2778,"å°į":2779,"åı¯æĮģç»Ńåıĳå±ķ":2780,"çļĦä¼ĺ":2781,"ï¼ĮâĢľ":2782,"æ·±åħ¥":2783,"æĶ¹è¿Ľ":2784,"æĺ¯ä¸Ģéĥ¨":2785,"æĪĳæľĢè¿ĳ":2786,"æİī":2787,"å¸ģ":2788,"äº¿":2789,"åģ¥åº·é¥®é£Ł":2790,"è²":2791,"çļĦæĥħåĨµ":2792,"æı¡":2793,"å¹ħ":2794,"æµ·æ»©":2795,"çĦ¶èĢĮ":2796,"åĳĺå·¥":2797,"çŃ¾":2798,"éķ¿åº¦":2799,"æĤ¨éľĢè¦ģ":2800,"éģį":2801,"åĿļæĮģ":2802,"ç±»ä¼¼":2803,"åĵ¥":2804,"è¾£":2805,"å¥ĭ":2806,"çº¯":2807,"çļĦé£İæł¼":2808,"å¦Ī":2809,"éĩįåĨĻä»¥ä¸ĭåı¥åŃĲ":2810,"è½»æĿ¾":2811,"æµĭè¯ķ":2812,"å°Ĩä»¥ä¸ĭåı¥åŃĲ":2813,"å¾Ħ":2814,"åºĶçĶ¨ç¨ĭåºı":2815,"äººç±»çļĦ":2816,"è¿Ļæ¬¾":2817,"åħ¬åħ±":2818,"å¹¶åľ¨":2819,"æĦŁåıĹ":2820,"æĢĢ":2821,"ï¼ŁâĢĿ":2822,"æ¼Ķåĳĺ":2823,"çłĶ":2824,"çĽ®çļĦåľ°":2825,"æľºæŀĦ":2826,"å®ģ":2827,"è¯»èĢħ":2828,"æľīä¸Ģ":2829,"éĶħ":2830,"ä¿ĿæĬ¤çİ¯å¢ĥ":2831,"æĬ½åıĸåĩº":2832,"åħ·ä½ĵçļĦ":2833,"å®¶äºº":2834,"åģ¥åº·çļĦ":2835,"äº¡":2836,"æİ¨åĬ¨":2837,"æĪĳæ²¡æľī":2838,"éĻĲåĪ¶":2839,"éĢĤåºĶ":2840,"æĢĿæĥ³":2841,"æĸĹ":2842,"å¹´çļĦ":2843,"å¼ĢæĶ¾":2844,"æĿŁ":2845,"è¿Ļæľ¬ä¹¦":2846,"è®²è¿°äºĨ":2847,"åĪĨåĪ«":2848,"å®ĥä»¬çļĦ":2849,"çĬ¯":2850,"ä»İè¿Ļç¯ĩæĸĩç«łä¸ŃæıĲåıĸåĩº":2851,"æī¾åĩº":2852,"æ¨¡æĭŁ":2853,"åĬ¨è¯į":2854,"çµ":2855,"å¥¹çļĦ":2856,"æıĲä¾ĽäºĨ":2857,"æ¹¿":2858,"æĤ¦":2859,"è´¡":2860,"Ģæľī":2861,"éĿŀå¸¸å¥½":2862,"å¿ħè¦ģ":2863,"çļĦè¯Ńè¨Ģ":2864,"çĶŁæĢģç³»ç»Ł":2865,"å¼ĥ":2866,"æ¶¦":2867,"çŁŃæĸĩ":2868,"æĿĢ":2869,"ä»ĸåľ¨":2870,"åķĬ":2871,"çļĦçĭ":2872,"éĩıåŃĲ":2873,"æŃ£ç¡®çļĦ":2874,"çī©çĲĨ":2875,"202":2876,"æŃ¦":2877,"æ¼Ĥ":2878,"çļĦçŁŃ":2879,"æĪĳè®¤ä¸º":2880,"ç®Ģè¦ģ":2881,"æī§è¡Į":2882,"ç©ºéĹ´":2883,"æĢ¥":2884,"åįģåĪĨ":2885,"åĨ¥æĥ³":2886,"ä½Ľ":2887,"æ¡Į":2888,"æŁ¥è¯¢":2889,"å´":2890,"é¥¼":2891,"çĽ´æİ¥":2892,"éļľ":2893,"èĽĭç³ķ":2894,"åĹ":2895,"æ³ķå¾ĭ":2896,"è¿Ļé¦ĸ":2897,"åĶĲ":2898,"èĩªåĬ¨é©¾é©¶":2899,"æ°Ķä½ĵ":2900,"ä¸ŃæľĢ":2901,"ç¬¦åı·":2902,"åŃ¤çĭ¬":2903,"ç¥ŀç§ĺ":2904,"æ··":2905,"è°±":2906,"«èĲ¨":2907,"å¯¿":2908,"æĥħç»ª":2909,"ä¸ĢèĪ¬":2910,"ä¾Ĩ":2911,"çŃĸçķ¥":2912,"ä»¥ä¸Ĭ":2913,"çļĦçģ":2914,"é«ĺåħ´":2915,"æĳĺ":2916,"æĶ»":2917,"éķĩ":2918,"çĬ¬":2919,"èĭ¦":2920,"æ±¤":2921,"çļĦæĻº":2922,"å°Ĩåľ¨":2923,"è¾¾åĪ°":2924,"çļĦæĻ¯":2925,"èķī":2926,"åŃ¦ä¹łåĴĮ":2927,"æľĢæĸ°":2928,"è°ĥæŁ¥":2929,"äººçĶŁ":2930,"å·¥ç¨ĭ":2931,"èĤ¥":2932,"åºĨ":2933,"è¡¨è¾¾äºĨ":2934,"ä¼ĺåĮĸ":2935,"çļĦæ´»åĬ¨":2936,"æ¸©æļĸ":2937,"å°¾":2938,"åºĵ":2939,"å·Ŀ":2940,"åĤ¨":2941,"éľĩ":2942,"çļĦæ¦Ĥ":2943,"çªĹ":2944,"çļĦæııè¿°":2945,"ç»ĺ":2946,"åĩºèī²":2947,"çļĦæ³":2948,"ç¬¬ä¸Ģ":2949,"åŃĹæ¯į":2950,"çĴ":2951,"æĪĳä»¬åºĶè¯¥":2952,"è®¨è®ºäºĨ":2953,"çĸ«æĥħ":2954,"çĶ°":2955,"çĶ¨æĿ¥":2956,"æĺ¾ç¤º":2957,"æİ¨å¹¿":2958,"çļĦæīĢæľī":2959,"ä¸ĸçºª":2960,"é£ĺ":2961,"æł¹æį®ç»Ļå®ļçļĦæĸĩæľ¬":2962,"æĺİç¡®":2963,"âĢ¦":2964,"çļĦæŃĮ":2965,"è¯ŃéŁ³è¯ĨåĪ«":2966,"æıı":2967,"¡èĲ":2968,"åľ£":2969,"æī©":2970,"è®°å½ķ":2971,"ä¸ĭåįĪ":2972,"å¤ªéĺ³ç³»":2973,"åı¯çĪ±":2974,"çĶŁæĹ¥":2975,"çºłæŃ£":2976,"èĵĿèī²":2977,"é¦Ļèķī":2978,"èĽĭçĻ½":2979,"å°¤":2980,"èĭ±åĽ½":2981,"çĿ¡çľł":2982,"çĶ³":2983,"è´Ŀ":2984,"ä¸Ģå®¶":2985,"ä¸Ģåħ±æľī":2986,"æĪĲéķ¿":2987,"±ä¹Ĳ":2988,"éĿ¢åĮħ":2989,"ä¸ºæĤ¨æıĲä¾Ľ":2990,"åĨįçĶŁ":2991,"çĩĥ":2992,"é¼ĵåĬ±":2993,"åĴ¨":2994,"ç®Ģçº¦":2995,"åĽº":2996,"èĢ³":2997,"æ£ī":2998,"æĿ¥èĩª":2999,"æ±ģ":3000,"éĹŃ":3001,"é¾Ħ":3002,"åĲĽ":3003,"è´¥":3004,"å·¦åı³":3005,"çļĦçĪ±":3006,"èĪ¹":3007,"æľµ":3008,"çĹħæ¯Ĵ":3009,"æ°ı":3010,"çļĦå·¥ä½ľ":3011,"è´¡çĮ®":3012,"å®Įåħ¨":3013,"ä»£çłģ":3014,"éĿ¢æĸĻ":3015,"ä¸ĢäºĽåħ³äºİ":3016,"åĪĨç»Ļ":3017,"çļĦåŁİå¸Ĥ":3018,"çļĦä¸Ģä¸ª":3019,"åı¯èĥ½æĺ¯":3020,"GP":3021,"çļĦæĭ":3022,"ç¾İå¥½çļĦ":3023,"æľĢä½³":3024,"ä¸Ģæ®µæĸĩæľ¬":3025,"è§£åĨ³æĸ¹æ¡Ī":3026,"çİ°è±¡":3027,"ç¿°":3028,"åĴ¨è¯¢":3029,"å¦Ļ":3030,"åı¤ä»£":3031,"æ¶Īè´¹":3032,"èµŀ":3033,"å¼¹":3034,"çļĦç¤¾":3035,"è¿Ļç¯ĩæĸĩç«łä¸Ń":3036,"çļĦéŁ³ä¹Ĳ":3037,"æĮĩå®ļ":3038,"çļĦäºĭæĥħ":3039,"å»¶":3040,"ãĢĭãĢĤ":3041,"èĩªè¡Įè½¦":3042,"å¸¦æĿ¥äºĨ":3043,"èĭĹ":3044,"å½¢å®¹è¯į":3045,"éª¤":3046,"çļĦæĢĿ":3047,"çļĦçŃĶæ¡Ī":3048,"ç½ª":3049,"åĲ¹":3050,"é½":3051,"åį·":3052,"éĢĲæ¸Ĳ":3053,"ªæĺİ":3054,"å¥ı":3055,"å°ıåŃ¦":3056,"çħ®":3057,"éĴ¢":3058,"é¢Ħéĺ²":3059,"çļĦåİĨåı²":3060,"æŃĮæĽ²":3061,"åĸľå¥½":3062,"éĢĻ":3063,"è¿¹":3064,"æĭį":3065,"æĺ¯çļĦ":3066,"å®ĥæĺ¯":3067,"æĿ°":3068,"æĪĲæľ¬":3069,"ç©¿çĿĢ":3070,"å·¥ä¸ļ":3071,"çĬ¶æĢģ":3072,"çıį":3073,"éģĵå¾·":3074,"æİ¢è®¨äºĨ":3075,"å¹¶æıĲä¾Ľ":3076,"å®ĥåı¯ä»¥":3077,"åłĤ":3078,"æ£®æŀĹ":3079,"éº»":3080,"èĤ¯":3081,"çĺ":3082,"åĽŀæĶ¶":3083,"åıĳæĮ¥":3084,"æ´Ľ":3085,"åĳĪ":3086,"åĲĦä¸ª":3087,"ç¾İåħĥ":3088,"è½½":3089,"æ·±åĪ»":3090,"çĽĲ":3091,"æľīæīĢ":3092,"èĥģ":3093,"å¤§æ°Ķ":3094,"åŃ¸":3095,"åįļçī©":3096,"è¡«":3097,"å¼łä¸ī":3098,"å¿ĥæĥħ":3099,"çĤĴ":3100,"è¿½æ±Ĥ":3101,"å¤§å®¶":3102,"èĩªåĬ¨åĮĸ":3103,"éĻĦè¿ĳ":3104,"å¯»æ±Ĥ":3105,"æĬĢæľ¯çļĦ":3106,"çĶŁåŃĺ":3107,"æ³ķåĽ½":3108,"ç»ĵåĲĪ":3109,"æİ¨åĩº":3110,"å®īæİĴ":3111,"ä¸»è¦ģè§ĤçĤ¹":3112,"æ¤Ĵ":3113,"å©ļ":3114,"çļĦéĢīæĭ©":3115,"èº«ä½ĵåģ¥åº·":3116,"ä»Ķ":3117,"åħµ":3118,"å±ķç¤º":3119,"åĸ»":3120,"å¨ģèĥģ":3121,"GPT":3122,"ä¸ĬéĿ¢":3123,"æľĢå¥½":3124,"èİĵ":3125,"è¢ĸ":3126,"é¸¡èĽĭ":3127,"åĪĽå»ºä¸Ģä¸ª":3128,"èĩ³å°ĳ":3129,"åĪĨç±»ä¸º":3130,"èİ«":3131,"çĶŁæĪĲæĳĺè¦ģ":3132,"èĦ±":3133,"æĹłè®º":3134,"èĭ¥":3135,"åĲĪå¹¶":3136,"ä¸Ĭè¿°":3137,"æīĢåľ¨":3138,"æĹ¶ä»£":3139,"çĶŁæ´»ä¸Ń":3140,"è½®":3141,"è¡¥":3142,"éª¨":3143,"å«":3144,"æ¦":3145,"è¿Ķ":3146,"éĽ·":3147,"æĪĳæĥ³çŁ¥éģĵ":3148,"åıįåºĶ":3149,"è¶ħå¸Ĥ":3150,"å®Ĺ":3151,"çĽ¸ä¿¡":3152,"è¿ª":3153,"Ġ=":3154,"çļĦç¬¬":3155,"åĵ¦":3156,"ä¹Łä¼ļ":3157,"æĸĩæľ¬éĶĻè¯¯":3158,"ä½ĵèĤ²":3159,"æĸ°é²ľ":3160,"éĻĪè¿°":3161,"æĹ©é¤Ĳ":3162,"æįŁ":3163,"é¥®æĸĻ":3164,"ç»©":3165,"ç»ıè¿ĩ":3166,"è¿ĺåī©ä¸ĭ":3167,"è³":3168,"å¹¶ä¸į":3169,"èĤĮ":3170,"äººæ°ĳ":3171,"å°Ĩä¸ĭéĿ¢":3172,"æľĢå¥½çļĦ":3173,"æĺ¯ä¸ŃåĽ½":3174,"ç«ŀäºī":3175,"èĻļæĭŁ":3176,"å¾ª":3177,"åĩĢ":3178,"æ¦Ĥå¿µ":3179,"æĥł":3180,"éĥģ":3181,"çľŁæŃ£":3182,"å®ļæľŁ":3183,"æľĥ":3184,"æŁĲäºĽ":3185,"éĥ½ä¼ļ":3186,"çº¦ç¿°":3187,"ä½łéľĢè¦ģ":3188,"ä¼ĺç§Ģ":3189,"æĪ¿éĹ´":3190,"åĨ¬åŃ£":3191,"çļĦæĥ³":3192,"æĺĵæĩĤ":3193,"ä¸ĢæĿ¡":3194,"åĢŁ":3195,"ä»Ĭå¹´":3196,"ä¸Ĭä¸ĭæĸĩ":3197,"èģªæĺİ":3198,"éļıæĹ¶":3199,"è·µ":3200,"ä¹°äºĨ":3201,"çİ¯å¢ĥæ±¡æŁĵ":3202,"ç¾İä¸½çļĦ":3203,"ä¸Ģä¸ªäºº":3204,"æľĢé«ĺ":3205,"çļĦç³":3206,"æħ§":3207,"çĪ¶":3208,"èľľ":3209,"æĪĲä¸Ģä¸ª":3210,"æĵįä½ľ":3211,"å®Įæķ´":3212,"çĽ¸åºĶ":3213,"ä¸ªåŃĹ":3214,"éĻĨ":3215,"çĶļ":3216,"è¾ħ":3217,"çĽ¾":3218,"å§Ķ":3219,"èĬĤçº¦":3220,"è¯¾ç¨ĭ":3221,"çļĦå°ıè¯´":3222,"æĺĵäºİçĲĨè§£":3223,"åı¤è¯Ĺç»ŃåĨĻ":3224,"ç§»":3225,"çľŁçļĦ":3226,"æ³¡":3227,"èº«å¿ĥ":3228,"ãĢĭï¼Į":3229,"å¥½çľĭ":3230,"è¯º":3231,"çļĦæ¯Ķ":3232,"é¼ł":3233,"æ¬²":3234,"è§Ĩé¢ĳ":3235,"æµ®":3236,"åĮºåĿĹ":3237,"åī¯":3238,"åı¯ä»¥ä½¿çĶ¨":3239,"åīįæĻ¯":3240,"çļĦæīĭ":3241,"åľ¨ä¸Ģèµ·":3242,"ç¶":3243,"åįļçī©é¦Ĩ":3244,"ç§įç±»":3245,"æķ°åŃ¦é¢ĺ":3246,"å®¾":3247,"çĵ¶":3248,"åģĩè®¾":3249,"è§ĦåĪĴ":3250,"è¯·çĶ¨":3251,"åĽŀå®¶":3252,"ä¼ĺè´¨":3253,"éĵ¶è¡Į":3254,"æĹ¢":3255,"å¥³åŃ©":3256,"åħ¬åĽŃéĩĮ":3257,"è¿Ľåħ¥":3258,"æĺ¯çĶ±":3259,"è§£éĩĬä¸Ģä¸ĭ":3260,"æ²Ł":3261,"éĺ´":3262,"ä¹ĭåĲİ":3263,"ä¸ĭéĽ¨":3264,"çļĩ":3265,"åı¯åĨįçĶŁ":3266,"éĢĢ":3267,"ä¸įè¶ħè¿ĩ":3268,"ä¿Ŀè¯ģ":3269,"å¾ĪæĬ±æŃī":3270,"åº¦åĴĮ":3271,"ç»Ļä½ł":3272,"è¯·å¯¹":3273,"åĨĻä¸Ģç¯ĩ":3274,"åĴĮåħ¶ä»ĸ":3275,"åĨĴéĻ©":3276,"æĸ¼":3277,"å¦Ĥä¸ĭ":3278,"ç»Ĵ":3279,"ä¼Ĭ":3280,"è¯ļ":3281,"å¦Ĥæŀľä½łåĸľæ¬¢":3282,"çĶŁæ´»æĸ¹å¼ı":3283,"å£®":3284,"å£°éŁ³":3285,"é£İæĻ¯":3286,"åĲī":3287,"çļĦé£İéĻ©":3288,"ç»ķ":3289,"ä¸»ä¹ī":3290,"çĪ±å¥½":3291,"åĦ¿ç«¥":3292,"æĹ¨åľ¨":3293,"è¿Ľè¡Įæĳĺè¦ģ":3294,"éķľ":3295,"æľīè®¸å¤ļ":3296,"åĵº":3297,"çĶ·å£«":3298,"å®ŀè·µ":3299,"èĤª":3300,"èĦĤèĤª":3301,"ä¸Ģå¤©":3302,"æ¸ħæ´ģ":3303,"å¡«":3304,"çĪ½":3305,"çģ¾å®³":3306,"æĺ¯ä¸Ģä½į":3307,"ç´¯":3308,"çĻĮ":3309,"Ġåľ¨":3310,"å°ıçĭĹ":3311,"è¡¨éĿ¢":3312,"è¿ŀæİ¥":3313,"åĴĮä¸Ģä¸ª":3314,"æĺŁçĲĥ":3315,"æĸĩè¨Ģ":3316,"çĸ²":3317,"æķ¢":3318,"æł¹æį®è¾ĵåħ¥":3319,"æĹĭ":3320,"æģ©":3321,"å¸®æĪĳæĥ³":3322,"éĢ»":3323,"æĻºèĥ½å®¶å±ħ":3324,"é»ĺ":3325,"æİ¥åıĹ":3326,"è§ĦåĪĻ":3327,"æ¶Īæŀģ":3328,"å¹´æĿ¥":3329,"è§Ī":3330,"æĻ¨":3331,"æ½®æµģ":3332,"çĪĨ":3333,"éĩįå¤į":3334,"æ°§åĮĸ":3335,"æĸĩè¨Ģæĸĩ":3336,"æķ¦":3337,"èļ":3338,"çĵľ":3339,"åĪ°è¾¾":3340,"å¤ĸå¥Ĺ":3341,"ä¹ı":3342,"å¯¹çİ¯å¢ĥ":3343,"å¨±ä¹Ĳ":3344,"å°Ĩå®ĥä»¬":3345,"æ·ĭ":3346,"çĽ¸å¯¹":3347,"æ·¡":3348,"ç²¾ç¥ŀ":3349,"åĢ¾":3350,"èĥ½éĩı":3351,"æīĺ":3352,"æĳĦåħ¥":3353,"å¹ķ":3354,"æŁĲä¸ª":3355,"éĢĤéĩı":3356,"è¯Ħä¼°":3357,"æ²Ļæ»©":3358,"èħ¿":3359,"ĽçĽ¾":3360,"æľŁéĹ´":3361,"èĽĭçĻ½è´¨":3362,"æŁ¥æī¾":3363,"åı¥åŃĲä¸Ń":3364,"ä¸Ģæ¬¾":3365,"è°ĵ":3366,"åĮºåĿĹéĵ¾":3367,"èī¯å¥½çļĦ":3368,"æľĢåĸľæ¬¢çļĦ":3369,"çĤ¹ç¬¦åı·":3370,"å¡ŀ":3371,"æ¡¥":3372,"åĵģç§į":3373,"çļĦæ±":3374,"åįĸ":3375,"ç¨³å®ļ":3376,"on":3377,"çĭ¬çī¹çļĦ":3378,"æ¸¯":3379,"éĤ£ä¸ª":3380,"è¹":3381,"æĦīå¿«":3382,"è§¦":3383,"çľĭçľĭ":3384,"çļĦä¸»æĹ¨":3385,"èĸĦ":3386,"åľ¨ä¸Ģä¸ª":3387,"200":3388,"å¼ºè°ĥäºĨ":3389,"ç»Ļå®ļçļĦæĸĩæľ¬":3390,"å±ĭ":3391,"éĩĮæľī":3392,"ç¾İå¥½":3393,"ä¸¾è¡Į":3394,"çļĦæĮĳæĪĺ":3395,"åı¹":3396,"æ¯ıä¸ªäººéĥ½":3397,"âĢĶâĢĶ":3398,"èĢĹ":3399,"çľĭèµ·æĿ¥":3400,"çļĦç¼":3401,"ĠâĢľ":3402,"å²¸":3403,"åł¡":3404,"çļĦç©":3405,"åĳ¨åĽ´":3406,"åĴĮæĸĩåĮĸ":3407,"åĮĸåŃ¦":3408,"ç®ĢåįķçļĦ":3409,"èį£":3410,"èµ¢":3411,"æĤ²":3412,"å°Ĩä»¥ä¸ĭæĸĩæľ¬":3413,"ä¹±":3414,"éľĢè¦ģæ³¨æĦı":3415,"çĽ¸äºĴ":3416,"å°ıæĺİæīĭ":3417,"æĸĩä¸Ń":3418,"åĪĺ":3419,"æĺ¥å¤©":3420,"éĢ»è¾ĳ":3421,"æİĮæı¡":3422,"çļĦèĥ½åĬĽ":3423,"å®ŀéªĮ":3424,"åĵºä¹³":3425,"ä¸ĢæĿ¯":3426,"ä½Ĩä»ĸ":3427,"æĬ«èĲ¨":3428,"çº·":3429,"å®¤æ°Ķä½ĵ":3430,"çĭ¬ç«ĭ":3431,"çļĦçĿ":3432,"ç¥ŀç»ıç½ĳç»ľ":3433,"çļĦåĲ«ä¹ī":3434,"éĹª":3435,"å¹´é¾Ħ":3436,"éĿ¢å¯¹":3437,"ä¹Łå¾Ī":3438,"åıªæĺ¯":3439,"äºĨè®¸å¤ļ":3440,"åº¦åģĩ":3441,"æŁĶè½¯":3442,"åĪł":3443,"é¡¶":3444,"åĵģè´¨":3445,"åĽŀçŃĶéĹ®é¢ĺ":3446,"ç¯®çĲĥ":3447,"âĢĿãĢĤ<|":3448,"ä¸Ńç«ĭ":3449,"å¤©æ°Ķé¢ĦæĬ¥":3450,"æĤ¬":3451,"çļĦåİŁåĽł":3452,"è¿ħ":3453,"ä¸ļåĬ¡":3454,"åŀĥåľ¾åĪĨç±»":3455,"æĹ¶éĹ´åĴĮ":3456,"èī²å½©":3457,"è§Ĥä¼Ĺ":3458,"äºĭçī©":3459,"å»ºè®¾":3460,"ä¼ĳæģ¯":3461,"æĹ¶æľŁ":3462,"æī¹":3463,"èķ´":3464,"æııè¿°äºĨ":3465,"çļĦè¯ĹæŃĮ":3466,"é¤Ĳé¦Ĩ":3467,"æµªæ¼«":3468,"æ³¨éĩį":3469,"çĶµè¯Ŀ":3470,"æĤł":3471,"è¿Ļå®¶é¤Ĳåİħ":3472,"è¯Ŀé¢ĺ":3473,"å°¤åħ¶":3474,"Ġå¥½çļĦ":3475,"æĪ´":3476,"ä¸»äºº":3477,"æľīæ²¡æľī":3478,"æķ°æį®éĽĨ":3479,"å§ĵ":3480,"çľĭåĪ°äºĨ":3481,"ç¨ĭåº¦":3482,"æİ¥ä¸ĭæĿ¥":3483,"æĢĿç»´":3484,"ä½ĨæĪĳ":3485,"æ¼Ĥäº®":3486,"æª":3487,"ç»ĻæĪĳä¸Ģä¸ª":3488,"äº¤æĺĵ":3489,"ä»¥ä¸ĭæĺ¯ä¸Ģéģĵ":3490,"çļĦæ¼":3491,"çī©ä½ĵ":3492,"çļĦè®¾è®¡":3493,"çŁĽçĽ¾":3494,"ç¾Ĭ":3495,"çļĦçĿ¡":3496,"å¹¶æ²¡æľī":3497,"è´´":3498,"å¤§èĩªçĦ¶":3499,"æŀĿ":3500,"å°ıåŃ¦æķ°åŃ¦é¢ĺ":3501,"çļĦæķĪ":3502,"å®£ä¼ł":3503,"æ¨¡ä»¿":3504,"ä»¥ä¸ĭæĺ¯ä¸Ģéģĵå°ıåŃ¦æķ°åŃ¦é¢ĺ":3505,"çī¹èī²":3506,"èĬ±åĽŃ":3507,"é¢Ħç®Ĺ":3508,"ä½łè®¤ä¸º":3509,"æį·":3510,"å¾ĹåĪ°äºĨ":3511,"çļĦç»ĵæŀľ":3512,"åı¯åĨįçĶŁèĥ½æºĲ":3513,"ä¸Ĭæĸĩ":3514,"éĽĦ":3515,"çĤ¸":3516,"èĭ±æĸĩ":3517,"èĻ«":3518,"è§Ħå¾ĭ":3519,"çĶµåŃĲéĤ®ä»¶":3520,"ä»¥ä¸ĭæ®µèĲ½":3521,"åĬŀåħ¬":3522,"æĭ¼åĨĻéĶĻè¯¯":3523,"å±ķçİ°":3524,"åĬ©æīĭ":3525,"è¿Ľè¡ĮåĪĨç±»":3526,"æĪĳæĺ¨å¤©":3527,"é«ĺåº¦":3528,"è¡¨æ¼Ķ":3529,"é¡ºåºı":3530,"çļĦæ¸¸":3531,"åĩºäºĨ":3532,"è¿Ļé¡¹":3533,"å·¨å¤§":3534,"èĦı":3535,"ç»ŃåĨĻåı¤è¯Ĺ":3536,"å¿§":3537,"é¢Ĺç³ĸæŀľ":3538,"æłĩåĩĨ":3539,"ä¹Ķ":3540,"æ¢ħ":3541,"çļĦä¸»è¦ģåĨħå®¹":3542,"æ¬§æ´²":3543,"ä¸ºä½ł":3544,"æ¡£":3545,"ç´«":3546,"çŀ":3547,"ä¸įåŃĺåľ¨":3548,"å±±å³°":3549,"çļĦçĿ¡çľł":3550,"çķª":3551,"çĸ«èĭĹ":3552,"èĮĦ":3553,"åİŁåı¥":3554,"åĲĥäºĨ":3555,"æ®Ĭ":3556,"ä½ľä¸ºä¸Ģä¸ª":3557,"æĦŁåħ´è¶£":3558,"å½¼":3559,"äºĶä¸ª":3560,"å®£å¸ĥ":3561,"çĲĨè®º":3562,"ç»ĦåĲĪ":3563,"åĬłä¸Ĭ":3564,"çļĦæİ¨":3565,"éĤ£äºĽ":3566,"åŁĥ":3567,"åıĺå¾ĹæĽ´åĬł":3568,"éľľ":3569,"ï¼ļ\"":3570,"èªī":3571,"éļĶ":3572,"æ¬£èµı":3573,"åĴª":3574,"èĢĥè¯ķ":3575,"è¯¢éĹ®":3576,"åĶ¯":3577,"æĭĽ":3578,"åİ¿":3579,"ä¹Łæľī":3580,"å¹½":3581,"éŁµ":3582,"æķı":3583,"åī§æĥħ":3584,"å¥³æĢ§":3585,"ä¾¿åĪ©":3586,"çİ°ä»£æĸĩ":3587,"çļĦæĻºèĥ½":3588,"ä¸ŃçļĦåºĶçĶ¨":3589,"çļĦæĦŁè§ī":3590,"åıįä¹īè¯į":3591,"ä¸Ģé¡¹":3592,"çĶ²":3593,"ä¸Ģä¸ĭè¿Ļç¯ĩæĸĩç«ł":3594,"çļĦçŁ¥":3595,"æĢİæł·":3596,"å®¡":3597,"åĵºä¹³åĬ¨çī©":3598,"åºĶè¯¥æĺ¯":3599,"è¯Ńæ°Ķ":3600,"ç¡¬":3601,"çļĦç½":3602,"æŁ¥çľĭ":3603,"é¢Ĩå¯¼":3604,"éģŃ":3605,"çļĦæİªæĸ½":3606,"æµªè´¹":3607,"åį«çĶŁ":3608,"ç¿»è¯ĳæĪĲæĸĩè¨Ģæĸĩ":3609,"è¯Ńåı¥":3610,"åĵģå°Ŀ":3611,"çľĭæ³ķ":3612,"åĵ²":3613,"åİ¨":3614,"æĽ´åĩĨç¡®":3615,"æĪĺäºī":3616,"èĦ¸":3617,"è£Ļ":3618,"ç»ĵè®º":3619,"æł¹æį®ä»¥ä¸ĭæĸĩæľ¬":3620,"æĦŁåıĹåĪ°":3621,"æĻĴ":3622,"æĹ¶åħī":3623,"çĿĽ":3624,"çļĦè¿ĲåĬ¨":3625,"è¿ĺéľĢè¦ģ":3626,"éĺ¶":3627,"ä¸Ģåı¥":3628,"ç¿»è¯ĳæĪĲçİ°ä»£æĸĩ":3629,"ä½łè§īå¾Ĺ":3630,"åį§":3631,"èĢģå¸Ī":3632,"æĶ¾åľ¨":3633,"èı²":3634,"åĲ¬èµ·æĿ¥":3635,"ï¼īãĢĤ":3636,"æľĢå¤§":3637,"åįł":3638,"çļĦæķ°éĩı":3639,"è¯¸":3640,"éģµ":3641,"æ¶µ":3642,"å°½åĬĽ":3643,"æĶ¹ä¸º":3644,"ä»¥ç¡®ä¿Ŀ":3645,"å¿ł":3646,"æĶ¹æŃ£":3647,"æ¶²":3648,"èī¯å¥½":3649,"ä¸Ģåľº":3650,"çļĦæ¸©":3651,"æİĴåºı":3652,"åľ¨äºİ":3653,"å¯¹äººç±»":3654,"åĴĮæ²»çĸĹ":3655,"ãĢĤ'":3656,"çĽŁ":3657,"åĭķ":3658,"ãĢĤ\"<|":3659,"çĽĴ":3660,"å¹³éĿ¢":3661,"å°º":3662,"çĪ¬":3663,"çĭĹçĭĹ":3664,"éĢĥ":3665,"æĪĳå°Ĩ":3666,"åľ¨å®¶éĩĮ":3667,"äºĪ":3668,"é»ĳæ´ŀ":3669,"æİ¨èįĲä¸ĢäºĽ":3670,"çļĦç²":3671,"è´ŁéĿ¢å½±åĵį":3672,"çļĦç¥":3673,"éļ¾ä»¥":3674,"æĶ¯éĵħç¬Ķ":3675,"çļĦæĥ³æ³ķ":3676,"é£ŁæĿĲ":3677,"å¤§çº¦":3678,"ãĢģâĢľ":3679,"AIè¯Ńè¨Ģæ¨¡åŀĭ":3680,"åĪłéĻ¤":3681,"åĬĽçļĦ":3682,"ç¾İçļĦ":3683,"çļĦç³ĸ":3684,"çĲ´":3685,"è®¡ç®Ĺæľºç§ĳåŃ¦":3686,"ä¼łæĴŃ":3687,"åİŁæĸĩ":3688,"åĨľä¸ļ":3689,"åĨĻçļĦ":3690,"èĻİ":3691,"ç¦ģ":3692,"åĪĨä¸º":3693,"æ¯Ķåĸ»":3694,"å®ŀæĹ¶":3695,"æŃ£å¼ı":3696,"åĴĮæĮĳæĪĺ":3697,"ç£¨":3698,"èĤº":3699,"å¤ļçļĦ":3700,"æĸĩåĮĸåĴĮ":3701,"å¦ĤæŃ¤":3702,"çĿ£":3703,"æī¬":3704,"çĨĬçĮ«":3705,"è½¬æį¢ä¸º":3706,"çªģçĦ¶":3707,"åľ¨æľªæĿ¥":3708,"æĸĩç«łä¸ŃæıĲåĪ°":3709,"ä¼¦æķ¦":3710,"åħļ":3711,"ä¼¯":3712,"å½±åĥı":3713,"å¾Ĺåĩº":3714,"çļĦä¸Ģç§į":3715,"èĳ±":3716,"èįīèİĵ":3717,"çļĦæ¬":3718,"åıĬåħ¶":3719,"çļĦä½¿çĶ¨":3720,"å°Ĭéĩį":3721,"çĬ¹":3722,"ĠæĪĳ":3723,"çļĦçĥŃ":3724,"åĸľæ¬¢åĲĥ":3725,"ä¼Ł":3726,"ç¬¬ä¸ī":3727,"å°½åı¯èĥ½":3728,"ä¸įçŁ¥éģĵ":3729,"éħĴåºĹ":3730,"åº¦è¿ĩ":3731,"æīĵå¼Ģ":3732,"éĢĴ":3733,"çĶ¨çļĦ":3734,"çĶļèĩ³":3735,"11":3736,"åĳĪçİ°":3737,"ç»ĻæĪĳä¸ĢäºĽ":3738,"å¼ºçĥĪ":3739,"çļĦå¤©æ°Ķé¢ĦæĬ¥":3740,"åħ¬éĩĮ":3741,"è¿Ł":3742,"è£ħé¥°":3743,"ä¸Ģæľ¬":3744,"éĶĻåĪ«":3745,"èİ·å¾ĹäºĨ":3746,"èĦī":3747,"æģĴ":3748,"è¸ª":3749,"ä¸Ģä»¶":3750,"ç«¹":3751,"éĶĻåĪ«åŃĹ":3752,"æĢ§èĥ½":3753,"æĸĩæľ¬çºłéĶĻ":3754,"æµ·è¾¹":3755,"æıĲéĨĴ":3756,"è£ģ":3757,"èĩªä¸»":3758,"åıĬæĹ¶":3759,"æĳĩ":3760,"åĪĨåĪ°":3761,"çł´åĿı":3762,"æ··åĲĪ":3763,"é¸£":3764,"æł¹æį®æłĩé¢ĺ":3765,"åŃĲçļĦ":3766,"è¡¬":3767,"å¤§æķ°æį®":3768,"æĦıåĳ³":3769,"å¢Ļ":3770,"çº¹":3771,"çĶĺ":3772,"æ»¡æĦı":3773,"æĺ¯ä»Ģä¹ĪæĦıæĢĿ":3774,"è¦ģçĤ¹":3775,"å¯¹æĸĩæľ¬éĶĻè¯¯":3776,"å¯¹æĸĩæľ¬éĶĻè¯¯è¿Ľè¡Į":3777,"ä»Ļ":3778,"æĢķ":3779,"éĻ¤äºĨ":3780,"çļĦæĢ§":3781,"çļĦçĹ":3782,"æĶ¯ä»ĺ":3783,"çĻ¼":3784,"èĢĮä¸įæĺ¯":3785,"åīĤ":3786,"è§Ħæ¨¡":3787,"æ¯ıä¸ªæľĭåıĭ":3788,"çĽ®çļĦ":3789,"ä¸ºä¸Ģä¸ª":3790,"çĶŁæĪĲä¸Ģé¦ĸ":3791,"çĩķ":3792,"äºĨä¸Ģç§į":3793,"æĸĩæ¡ĪçĶŁæĪĲ":3794,"çĹĩçĬ¶":3795,"è®°å¿Ĩ":3796,"ä»Ĭå¤©å¤©æ°Ķ":3797,"äºĴåĬ¨":3798,"ï¼ļ'":3799,"çļĦç©º":3800,"25":3801,"å°±ä¸ļ":3802,"è§£åĨ³éĹ®é¢ĺ":3803,"éĿ¢ç§¯":3804,"å®Ŀå®Ŀ":3805,"éķ¿æľŁ":3806,"è¯Ńæ³ķåĴĮ":3807,"åı¯ä»¥æıĲé«ĺ":3808,"çī©ç§į":3809,"éĨī":3810,"ç§°ä¸º":3811,"è®¡ç®Ĺæľºè§Ĩè§ī":3812,"åİŁå§ĭæĸĩæľ¬":3813,"åĩ¡":3814,"å¤®":3815,"ĽåĽ´":3816,"ä½¿åħ¶æĽ´åĬłç®Ģæ´ģæĺİäºĨ":3817,"æĻĤ":3818,"æĻºæħ§":3819,"èķ´åĲ«":3820,"ç¤¾åĮº":3821,"åĽ¾ä¹¦":3822,"çļĦåħ·ä½ĵ":3823,"ä¿Ĺ":3824,"éĿŀå¸¸æĦŁè°¢":3825,"è®¿éĹ®":3826,"è®¤è¯Ĩ":3827,"å¾Īæľī":3828,"èĳ¡èĲ":3829,"èĳ¡èĲĦ":3830,"çļĦçİ¯å¢ĥ":3831,"èĢį":3832,"åĽ¾åĥıè¯ĨåĪ«":3833,"èĤ´":3834,"èİ±":3835,"èľĤ":3836,"æĭľ":3837,"äººåľ¨":3838,"çĳŀ":3839,"è¿Ļæ¬¡":3840,"åĮ»éĻ¢":3841,"æĦīæĤ¦":3842,"çłĶåıĳ":3843,"è¿ĩåº¦":3844,"åħħåĪĨ":3845,"å¤ľæĻļ":3846,"çİ°åľ¨è¯·ä½ł":3847,"èĬ³":3848,"ç§»åĬ¨":3849,"é»ĳèī²":3850,"çļĦæł¸":3851,"ä¸įåŃĺåľ¨å®ŀä½ĵ":3852,"æ¸©å®¤æ°Ķä½ĵ":3853,"è¿Ļæĺ¯ä¸Ģç¯ĩ":3854,"å®ŀä½ĵè¯ĨåĪ«":3855,"çļĦæ¼Ķ":3856,"çľ¼çĿĽ":3857,"åįģå¹´":3858,"æĿ¥æºĲ":3859,"ä¿®æŃ£":3860,"åĲĪéĢĤçļĦ":3861,"äºĨå¾Īå¤ļ":3862,"åıĺæĪĲ":3863,"æĺİæĺ¾":3864,"å®ŀæĸ½":3865,"ç»Łè®¡":3866,"å°ıæĺİåĴĮ":3867,"è¿Ļä¸¤ä¸ª":3868,"è·¯ä¸Ĭ":3869,"æ¥ļ":3870,"æķ¬":3871,"é²ģ":3872,"GPTæ¨¡åŀĭ":3873,"ç»¼":3874,"æĭĶ":3875,"éŃĶæ³ķ":3876,"ä½łå¥½":3877,"å¯Ĥ":3878,"âĢĿãĢģâĢľ":3879,"å¯Ĩçłģ":3880,"åĲ«æľī":3881,"æĽ¿æį¢ä¸º":3882,"éģĩåĪ°":3883,"çļĦçĭĹ":3884,"è¯·ä»İ":3885,"åīįæıĲ":3886,"Ġ3":3887,"çļĦæĮĩ":3888,"æĲº":3889,"åīª":3890,"åıĤè§Ĥ":3891,"éĢĤå½ĵçļĦ":3892,"çģŃ":3893,"çļĦæıĲ":3894,"åħĶ":3895,"è¿Ľå±ķ":3896,"çī¹æ®Ĭ":3897,"åİ»å¹´":3898,"çļĦæĦıä¹ī":3899,"åĮºåŁŁ":3900,"èıľåĵģ":3901,"åĨĻè¯Ĺ":3902,"åı¯ä»¥èĢĥèĻĳ":3903,"è§Ĥçľĭ":3904,"ç»´æĬ¤":3905,"é»Ħèī²":3906,"åħ³éĶ®åŃĹ":3907,"æĺ¯å¤ļå°ĳ":3908,"é£ŀè¡Į":3909,"çĶ·åŃ©":3910,"éĺµ":3911,"å°ĺ":3912,"çīĪæľ¬":3913,"çļĦçŁ¥è¯Ĩ":3914,"æĭĤ":3915,"æĸ°éĹ»æĸĩç«ł":3916,"èĥ¡":3917,"åħħæ»¡äºĨ":3918,"åĢ¼å¾Ĺä¸Ģ":3919,"å¼Ł":3920,"æľĢæĸ°çļĦ":3921,"æįķ":3922,"åĨ³äºİ":3923,"ç»ĻäºĨ":3924,"å¼Ģå¤´":3925,"ä¿®èº«":3926,"æľīçĤ¹":3927,"ç¼ºä¹ı":3928,"è¿ĶåĽŀ":3929,"æĸĩæĺİ":3930,"ä¸ŃæĢ§":3931,"æ¸ħæĸ°":3932,"æĦıåĳ³çĿĢ":3933,"åŁºåĽł":3934,"åıĸåĨ³äºİ":3935,"æİĴåĪĹ":3936,"çĮ«åĴª":3937,"çļĦåĲįç§°":3938,"¹é¥":3939,"å¤ªéĺ³èĥ½":3940,"æ¡ĥ":3941,"æ·±åĳ¼åĲ¸":3942,"ä¸ªæĢ§åĮĸ":3943,"åĪĨæŀĲåĴĮ":3944,"å¾Īå¤§":3945,"èĤ¡ç¥¨":3946,"æĽ¼":3947,"ç¤¼çī©":3948,"è¾ħåĬ©":3949,"¹é¥ª":3950,"æ²ŁéĢļ":3951,"æĺ¯æĪĳ":3952,"éĢĬ":3953,"åı¯ä»¥è®©":3954,"ç©Ĩ":3955,"åį±éĻ©":3956,"åĵªç§į":3957,"æŃ¥éª¤":3958,"åħ¶æ¬¡":3959,"æĸ°åŀĭ":3960,"åĩºè¡Į":3961,"ĠĠ":3962,"éĥ¨éĹ¨":3963,"åĪºæ¿Ģ":3964,"èĩªçĦ¶çģ¾å®³":3965,"æĳĨ":3966,"å¸¸è§ģçļĦ":3967,"åıĳæĺİ":3968,"æĻºèĥ½åĮĸ":3969,"åĪĹä¸¾":3970,"çľŁå®ŀ":3971,"çŃīéĹ®é¢ĺ":3972,"çļĦä»»åĬ¡":3973,"æĺ¯åħ³äºİ":3974,"æĪĳä»Ĭå¤©":3975,"ä¼ĺåĬ¿":3976,"èĤ¯å®ļ":3977,"åĵĪåĪ©":3978,"éĩĮçļĦ":3979,"æĻ´æľĹ":3980,"å®½æĿ¾":3981,"è®¾ç½®":3982,"åĿĢ":3983,"å¼Ģå¿ĥ":3984,"ç§¯æŀģçļĦ":3985,"ä¸ĭéĻį":3986,"è´¢åĬ¡":3987,"å®¤åĨħ":3988,"åĪļåĪļ":3989,"ç¼ĸåĨĻä¸Ģä¸ª":3990,"æĮĤ":3991,"äº¦":3992,"æıĲåĩºäºĨ":3993,"èĤĸ":3994,"çļĦç¾İé£Ł":3995,"æĪĲä¸ºäºĨ":3996,"åĴĮç¤¾ä¼ļ":3997,"çī©çĲĨåŃ¦":3998,"æĥħæĦŁåĪĨæŀĲ":3999,"äººå·¥æĻºèĥ½çļĦåºĶçĶ¨":4000,"æł¹æį®ç»Ļå®ļ":4001,"ï¼īï¼Į":4002,"åªļ":4003,"æ£Ģæµĭ":4004,"æĸ°æ¬¾":4005,"åı¯ä»¥å°Ŀè¯ķ":4006,"16":4007,"çİ©èĢį":4008,"æľĢå¤§çļĦ":4009,"å¢¨":4010,"çİ¯ä¿ĿæĦıè¯Ĩ":4011,"éĢĹ":4012,"ä¸ºä»¥ä¸ĭ":4013,"èī¾":4014,"å¸¸å¸¸":4015,"éĿŀå¸¸éĩįè¦ģ":4016,"ä¸»è¯Ń":4017,"æĪĲå°±":4018,"å¾Ĵ":4019,"å·¥èīº":4020,"éŁ©çīĪ":4021,"æµ·å¹³éĿ¢":4022,"æĸ¹éĿ¢çļĦ":4023,"åħ¨éĿ¢":4024,"çº½çº¦å¸Ĥ":4025,"è¢«è®¤ä¸º":4026,"æıĲç¤º":4027,"è¿Ļæ®µæĸĩåŃĹ":4028,"å¸ħ":4029,"åį°åº¦":4030,"è¦Ĩ":4031,"ä¸ŃæıĲåıĸåĩº":4032,"è´¦":4033,"ä½ľå®¶":4034,"çīĽä»Ķ":4035,"æĭĮ":4036,"å¦Ĥæŀľä½łæĥ³":4037,"æŀģç«¯":4038,"çĶŁç´ł":4039,"çļĦæķĻ":4040,"è¯ķè¯ķ":4041,"å¸½":4042,"æĪĳä»¬å°Ĩ":4043,"èµ¢å¾Ĺ":4044,"è¿Ŀ":4045,"ä¸ĢåĢĭ":4046,"æľīä¸ĢäºĽ":4047,"éĩĮéĿ¢":4048,"èį·":4049,"æĽ°":4050,"çŃĶæ¡Īæĺ¯":4051,"å¼±":4052,"åķĨåºĹ":4053,"åŃ¦ä¹łç¼ĸç¨ĭ":4054,"æīĢéľĢ":4055,"ä¸ģ":4056,"æŃ»äº¡":4057,"é£ŁçĶ¨":4058,"çİ©åħ·":4059,"ħåĬĽ":4060,"ä¸Ģéĥ¨":4061,"åĴĮåºĶçĶ¨":4062,"æ·ĩ":4063,"åħ´å¥ĭ":4064,"å°±åı¯ä»¥":4065,"ä¸Ģæ®µæĸĩåŃĹ":4066,"ä¸²":4067,"äººä»¬çļĦ":4068,"è±ª":4069,"éĩįå¤§":4070,"ãĢĤâĢľ":4071,"é¬":4072,"çĸĳéĹ®":4073,"ä¸¹":4074,"çļĦåĲįåŃĹ":4075,"å¦ĩ":4076,"çĶŁéķ¿":4077,"çļĦæł¸å¿ĥ":4078,"çļĦç¨":4079,"é½Ĳ":4080,"å¥½å¤Ħ":4081,"æĺ¨æĻļ":4082,"ä¸Ģå¹´":4083,"æĦŁåĪ°éĿŀå¸¸":4084,"æĢİä¹Īæł·":4085,"ç´§å¼ł":4086,"åİŁçĲĨ":4087,"çļĦæ·":4088,"èħĲ":4089,"æĿĲè´¨":4090,"ä¸ĭéĿ¢çļĦåı¥åŃĲ":4091,"ä¿Ŀæļĸ":4092,"åĴĮæľĭåıĭ":4093,"è¿ĺæľīåħ¶ä»ĸ":4094,"éģĩåĪ°äºĨ":4095,"æĪĳæİ¨èįĲ":4096,"å¸Ń":4097,"AIæĬĢæľ¯":4098,"çļĦåħ³éĶ®ä¿¡æģ¯":4099,"éĩįè§Ĩ":4100,"æĳ©":4101,"çļĦåħ³éĶ®è¯į":4102,"åıĹæ¬¢è¿İçļĦ":4103,"äººåı£":4104,"èµĸ":4105,"è¯»ä¹¦":4106,"åĵ²åŃ¦":4107,"åĲİçļĦåı¥åŃĲ":4108,"æĽ´æŃ£":4109,"æ·ĩæ·ĭ":4110,"çļĦçĸ":4111,"çı¾":4112,"è§Ĥå¯Ł":4113,"è½¬åĮĸ":4114,"èģļä¼ļ":4115,"é£Łè°±":4116,"åľ¨ä¸ŃåĽ½":4117,"å¹¶è¾ĵåĩº":4118,"åĨ°æ·ĩæ·ĭ":4119,"è¿Ľè¡ĮäºĨ":4120,"æĴ°":4121,"å¹¿æ³ĽåºĶçĶ¨":4122,"æĽ¿ä»£":4123,"åħįçĸ«":4124,"çļĦç½ĳ":4125,"çķªèĮĦ":4126,"è·¯çº¿":4127,"éĺĶ":4128,"è¿ħéĢŁ":4129,"æĪĳä»¬çļĦçĶŁæ´»":4130,"èĬĿ":4131,"çĭĤ":4132,"åĭĴ":4133,"å¿½":4134,"Ġ2":4135,"14":4136,"çŃīå¾ħ":4137,"åķĨåĬ¡":4138,"é¸Ń":4139,"äººå·¥æĻºèĥ½åľ¨åĮ»çĸĹé¢ĨåŁŁ":4140,"ç¼ºçĤ¹":4141,"è·¨":4142,"è¾ŀ":4143,"å¤¹":4144,"ä½łæľīä»Ģä¹Ī":4145,"æľīæķĪåľ°":4146,"çļĦæ²»":4147,"ç¼ĸè¾ĳä»¥ä¸ĭåı¥åŃĲ":4148,"åıĳå±ķçļĦ":4149,"åħ·å¤ĩ":4150,"èĥ½ä¸įèĥ½":4151,"æİĪ":4152,"èĥŀ":4153,"æĿ¥è§£åĨ³":4154,"å¤§å°ı":4155,"åı¯ä»¥è¢«":4156,"ç®ĢåĮĸ":4157,"åĮĢ":4158,"åħħè¶³":4159,"æĸ°éĹ»æłĩé¢ĺ":4160,"èĮĥåĽ´åĨħ":4161,"éĢıæ°Ķ":4162,"è®¾æĸ½":4163,"æĪĲåĪĨ":4164,"æ³ķè§Ħ":4165,"ç¦»å¼Ģ":4166,"è¯·å¸®æĪĳ":4167,"çģ°":4168,"è¿ĳå¹´æĿ¥":4169,"éł":4170,"ä¹°äºĨä¸Ģ":4171,"å®ŀçĶ¨":4172,"çĽ´åĪ°":4173,"ä¼ĺçĤ¹":4174,"ä¸ĵæ³¨":4175,"èĩªèº«":4176,"åıĸæ¶Ī":4177,"çļĦä¹¦":4178,"åŃĲåĴĮ":4179,"ä½¿åħ¶æĽ´åĬłç®Ģæ´ģ":4180,"çłĶç©¶è¡¨æĺİ":4181,"æĹłéĻĲ":4182,"çļĦæĢ»ç»ĵ":4183,"åı¯éĿł":4184,"ä¸ªæ©ĻåŃĲ":4185,"æĸ°äº§åĵģ":4186,"çĮİ":4187,"è®²è¿°äºĨä¸Ģä¸ª":4188,"æĥ³æ³ķ":4189,"å¤ıæĹ¥":4190,"æĽ¾ç»ı":4191,"æĪ·å¤ĸæ´»åĬ¨":4192,"èĴ¸":4193,"çĻ¾æĲŃ":4194,"åľ°ä¸Ĭ":4195,"èıľåįķ":4196,"ä¸Ģå¼ł":4197,"å¾Īå¥½çļĦ":4198,"è²Į":4199,"çļĦæ¦Ĥå¿µ":4200,"æĥħåĨµä¸ĭ":4201,"æĳĦæ°ı":4202,"è§Ĵåº¦":4203,"ä¸»è§Ĵ":4204,"hon":4205,"çļĦæ¶":4206,"èĢĢ":4207,"ä¾µ":4208,"éĺ²æŃ¢":4209,"é¢Ħè®¡":4210,"æ®ĭ":4211,"æĸĩç«łåĨħå®¹":4212,"åı¤èĢģ":4213,"ä¹ĭå¤Ħ":4214,"æĹłäºº":4215,"æĦģ":4216,"äº§ä¸ļ":4217,"ç¬¬ä¸Ģä¸ª":4218,"åį³ä½¿":4219,"åı£è¯Ń":4220,"äººå·¥æĻºèĥ½çļĦåıĳå±ķ":4221,"ç¨İ":4222,"æ³Ĭ":4223,"ä¸Ńæľī":4224,"äººå£«":4225,"æ¶Īè´¹èĢħ":4226,"è¡¨æł¼":4227,"çļĦç²¾":4228,"æłĩçŃ¾":4229,"åı¦ä¸Ģä¸ª":4230,"åĲįä¸º":4231,"ä¸ľäº¬":4232,"ä¹Į":4233,"13":4234,"è¯¥æĸĩæľ¬":4235,"å¯¼æ¼Ķ":4236,"æĪĳåİ»":4237,"ä»ĸäºº":4238,"çĥŃéĹ¨":4239,"ä»°":4240,"æ¨¡æĭŁäººç±»":4241,"åģ¥åº·åĴĮ":4242,"æĵİ":4243,"æĺ¯ä¸ª":4244,"èį¡":4245,"æ²Ļæĭī":4246,"èıľèĤ´":4247,"çº¤":4248,"è¯·ä¸ºæĪĳ":4249,"ç²Ĵ":4250,"åľ°åĲį":4251,"è´¸":4252,"å°ıæĺİå®¶":4253,"å±ı":4254,"çķĻä¸ĭ":4255,"17":4256,"å¿ĥèĦı":4257,"å°¼åħĭ":4258,"Ġåħ¶":4259,"éĻ¶":4260,"ç§ĭåŃ£":4261,"ä¹ĭå¤ĸ":4262,"æľªçŁ¥":4263,"çļĦæ¸¸æĪı":4264,"æľīçĽĬ":4265,"é¢Ħè®¢":4266,"å½¢è±¡":4267,"æĪĲç»©":4268,"åĩºéĹ¨":4269,"åŃ¦ä¼ļ":4270,"å¤ļæķ°":4271,"éĢĹåı·":4272,"çļĦçĮ":4273,"åĽ¾ä¹¦é¦Ĩ":4274,"çļĦé¢ľèī²":4275,"æĺİåªļ":4276,"åĢį":4277,"é¡µ":4278,"æĹ¶åĪ»":4279,"åı¯ä»¥éĢīæĭ©":4280,"èĴĤ":4281,"æĽ´å¿«":4282,"æıĲä¾ĽçļĦ":4283,"ç¾½":4284,"æī®":4285,"åģıå¥½":4286,"åıĤèĢĥ":4287,"çĽ¸åħ³ä¿¡æģ¯":4288,"ä¸§":4289,"é£İåĲ¹":4290,"åĨħå¿ĥ":4291,"é£ŀæľº":4292,"âĦ":4293,"æľīçļĦ":4294,"ç»ĵæĿŁ":4295,"æ²¿":4296,"è®¯":4297,"è¿Ļç¯ĩæĸĩç«łä¸»è¦ģ":4298,"åĽłä¸ºæĪĳ":4299,"åħ¶ä¸ŃåĮħæĭ¬":4300,"çļĦæŀ":4301,"è¯ĦåĪĨ":4302,"æ³ī":4303,"æııè¿°ä¸Ģä¸ĭ":4304,"æĢª":4305,"æľĢè¿ĳçļĦ":4306,"âĦĥ":4307,"ä½łä¼ļ":4308,"æł¹æį®èĩªå·±çļĦ":4309,"èħ»":4310,"ç®Ģæĺİ":4311,"è§Ħå®ļ":4312,"èģĶåĲĪ":4313,"çļĦé¦ĸ":4314,"å¥¥è¿Ĳ":4315,"ä¸įè¶³":4316,"çĶµæ±ł":4317,"å¦¹":4318,"æī£":4319,"åºĦ":4320,"çļĦåĬ¨çī©":4321,"èĮ¨":4322,"æĹħæ¸¸æĻ¯çĤ¹":4323,"çļĦæĥħç»ª":4324,"éĥ½åı¯ä»¥":4325,"å°±åĥı":4326,"åĲĦåľ°":4327,"çŁ¿":4328,"åĮ¹":4329,"åĽŀçŃĶè¿Ļä¸ªéĹ®é¢ĺ":4330,"å·¨å¤§çļĦ":4331,"æĺ¯æľĢ":4332,"å½±çīĩ":4333,"å¼ķæĵİ":4334,"æĺ¯éĿŀå¸¸":4335,"èĬĤæĹ¥":4336,"å²©":4337,"éĩİé¤Ĳ":4338,"èĴĻ":4339,"å®¿":4340,"åħ¨åĽ½":4341,"å±ħæ°ĳ":4342,"å¸®åĬ©æĤ¨":4343,"æ¶īåıĬåĪ°":4344,"æ³¢çī¹":4345,"çİ¯ä¿ĿçļĦ":4346,"éĩİçĶŁ":4347,"é¦Ī":4348,"çļĦçĶŁæ´»æĸ¹å¼ı":4349,"åĭ¤":4350,"åĸľåī§":4351,"çļĦæĳĦ":4352,"äººå¿ĥ":4353,"ç½ĳä¸Ĭ":4354,"åĪĨæĪĲ":4355,"åıĸä»£":4356,"ä¸ºç»Ļå®ļçļĦ":4357,"å¾ªçİ¯":4358,"ä»¥æĿ¥":4359,"åĪĢ":4360,"æŁľ":4361,"è¿Ļæ®µè¯Ŀ":4362,"000":4363,"æĺ¯ä¸ĢåĲį":4364,"éķ¿çļĦ":4365,"æĪĳéĿŀå¸¸":4366,"åĴĮåıĳå±ķ":4367,"ç§Ł":4368,"éķ¿æĹ¶éĹ´":4369,"åĸľçĪ±":4370,"æĺ¯äººç±»":4371,"ç»ĻæĤ¨":4372,"æĥ³è±¡":4373,"å½ĵä½ł":4374,"çļĦç³ĸæŀľ":4375,"çĶ·åŃĲ":4376,"ä¸°å¯ĮçļĦ":4377,"åŃĲéĩĮ":4378,"åŃĻ":4379,"åĴĮå¹³":4380,"ä¸įå¥½":4381,"åı¯ä»¥çĶ¨":4382,"åİĺ":4383,"å§¿":4384,"å¾·åĽ½":4385,"æĢĸ":4386,"å¤ķ":4387,"äººä½ĵ":4388,"çĽĳç®¡":4389,"çļĦæĽ":4390,"æ¸¸å®¢":4391,"çļĦéľĢæ±Ĥ":4392,"éĽĨä¸Ń":4393,"æ´ª":4394,"æĮĳ":4395,"çļĦä¸ĢäºĽ":4396,"æģĭ":4397,"ç»´çĶŁç´ł":4398,"çĭ®":4399,"æĳĺåıĸ":4400,"çģµæĦŁ":4401,"è¯·æł¹æį®":4402,"é«ĺçļĦå±±å³°":4403,"å°ıåįİ":4404,"æī°":4405,"çļĦçī¹çĤ¹":4406,"çļĦæ²»çĸĹ":4407,"é²¸":4408,"æĤ¨åı¯ä»¥å°Ŀè¯ķ":4409,"è¿Ļåľº":4410,"åİĤ":4411,"è·ĥ":4412,"çļĦç¼ĸ":4413,"2021":4414,"è¯¥åħ¬åı¸":4415,"æĭĵ":4416,"å¼ķåıĳ":4417,"ç¢İ":4418,"ä¸ĵå®¶":4419,"åĩ½":4420,"çĽĳçĿ£":4421,"æĶ¶éĽĨ":4422,"ä½łèĥ½å¸®æĪĳ":4423,"æĸ¯åĿ¦":4424,"éĢ²":4425,"çļĦè¡Įä¸º":4426,"åİ»åħ¬åĽŃ":4427,"24":4428,"éĺ»":4429,"å¤§èĦĳ":4430,"æµ·å¹³éĿ¢ä¸Ĭåįĩ":4431,"è®¸å¤ļäºº":4432,"å¥Ķ":4433,"æĿ¨":4434,"ä»ĭç»įä¸Ģä¸ĭ":4435,"è½¦è¾Ĩ":4436,"çļĦå®īåħ¨":4437,"è¯¥æĸĩç«ł":4438,"å¯¿åĳ½":4439,"90":4440,"ãĢį":4441,"å°½éĩı":4442,"èĤĮèĤī":4443,"ä»ª":4444,"åľĪ":4445,"çļĦç¬ĳ":4446,"ä¼¼ä¹İ":4447,"èĤł":4448,"æĪĳä¸įèĥ½":4449,"éĩĩåıĸæİªæĸ½":4450,"æ³½":4451,"è´¯":4452,"äºĭæķħ":4453,"æĥľ":4454,"ãĢĮ":4455,"éĹ®é¢ĺçļĦ":4456,"æľŁå¾ħ":4457,"è¿Ļç¯ĩæĸĩç«łçļĦä¸»è¦ģè§ĤçĤ¹":4458,"éº¼":4459,"é¸¡èĤī":4460,"å¹¶ç»Ļåĩº":4461,"ä¿ĿçķĻ":4462,"èİİ":4463,"æºª":4464,"ç¢³æİĴæĶ¾":4465,"çĻ½èī²":4466,"æ¤ħ":4467,"âĢĿ<|":4468,"åľ°åĽ¾":4469,"åľ¨åĵªéĩĮ":4470,"ä¸¦":4471,"æĪĳæŃ£åľ¨":4472,"è´§å¸ģ":4473,"çļĦæĬĢèĥ½":4474,"çļĦæ¢":4475,"é¢ĨåŁŁçļĦ":4476,"çĥ¹é¥ª":4477,"å°ıé¸Ł":4478,"åıĭå¥½":4479,"å½¢çĬ¶":4480,"åľ¨ç»Ļå®ļçļĦ":4481,"åĬĽåŃ¦":4482,"ç®ĢçŁŃçļĦ":4483,"åıªèĥ½":4484,"ç¨®":4485,"çļĦå¥½å¤Ħ":4486,"æĬĵ":4487,"çļĦç¤¾ä¼ļ":4488,"åºĨç¥Ŀ":4489,"åľ¨åħ¬åĽŃéĩĮ":4490,"ä¸Ńå¤®":4491,"ä½łä»¬":4492,"æĳĦæ°ıåº¦":4493,"åľ¨è¿ĩåİ»":4494,"ä¸įå¤ª":4495,"åĽ½åĨħ":4496,"çĶµè§Ĩåī§":4497,"åĪĨéħį":4498,"å¹¶å°Ĩåħ¶":4499,"æĽ´ä¸º":4500,"çļĦæİĴ":4501,"çļĦæŃĮæĽ²":4502,"å»ºè®®åĲĹ":4503,"ä½łåı¯ä»¥å°Ŀè¯ķ":4504,"æ¯ĶèµĽä¸Ń":4505,"åĨłåĨĽ":4506,"ä¸¾åĬŀ":4507,"ç»Ĩèĥŀ":4508,"å¿ĥçĲĨåģ¥åº·":4509,"å±ķå¼Ģ":4510,"æł·çļĦ":4511,"æ½ľåľ¨":4512,"çļĦæĶ¯":4513,"åĲ¬éŁ³ä¹Ĳ":4514,"çļĦæŁ":4515,"è¯ĨåĪ«åĩº":4516,"åıĸå¾ĹäºĨ":4517,"å¦ĤæŀľæĤ¨åĸľæ¬¢":4518,"æĶ»åĩ»":4519,"æª¬":4520,"ä¼ŀ":4521,"æīĵç®Ĺ":4522,"è°ľ":4523,"å£ģ":4524,"çĤİçĥŃ":4525,"èµĭ":4526,"å¸®æĤ¨":4527,"ä»Ĭå¤©çļĦå¤©æ°Ķ":4528,"æĶ¾åħ¥":4529,"æ¸ħåįķ":4530,"ä½łèĥ½åĳĬè¯īæĪĳ":4531,"æľīæķĪçļĦ":4532,"äºĮæ°§åĮĸ":4533,"çĽĳæµĭ":4534,"æĪĳæĥ³è¦ģ":4535,"ä½łå¯¹":4536,"åĭĩæķ¢":4537,"łæª¬":4538,"èĩªä¿¡":4539,"èĿ¶":4540,"çļĦçĪ±æĥħ":4541,"ä¸įéľĢè¦ģ":4542,"åıįé¦Ī":4543,"å¤ļæł·æĢ§":4544,"è®¤çŁ¥":4545,"ä»ģ":4546,"æ¯ķ":4547,"äº¤éĢļå·¥åħ·":4548,"æĽ´æĶ¹":4549,"æľĢéĩįè¦ģ":4550,"çİĽä¸½":4551,"ä¿ĿæĮģåģ¥åº·":4552,"çļĦè¯Ŀé¢ĺ":4553,"éļıæľº":4554,"ä¸įéĶĻçļĦéĢīæĭ©":4555,"å¤§åŀĭ":4556,"å½¼æŃ¤":4557,"æİ¢éĻ©":4558,"å¤ªç©ºæİ¢ç´¢":4559,"æĶ¶åħ¥":4560,"çļĦåŁºæľ¬":4561,"æĽ´åħ·ä½ĵ":4562,"ä¸ĭéĿ¢çļĦæĸĩæľ¬":4563,"æīĵéĢł":4564,"çļĦæĹ¥":4565,"ä¹ŁéľĢè¦ģ":4566,"å°ıçĮ«":4567,"åħĭæľį":4568,"é¦Ļæ¸¯":4569,"çļĦæģ":4570,"å®ļåĪ¶":4571,"ä¼łè¾¾":4572,"æłĩçĤ¹ç¬¦åı·":4573,"åŃĹç¬¦":4574,"äºĭä¸ļ":4575,"ä¸Ĭæľī":4576,"ç©·":4577,"å¹¿æ³ĽåºĶçĶ¨äºİ":4578,"å¦Īå¦Ī":4579,"ä¿Ħ":4580,"åĨĻä¸Ģé¦ĸ":4581,"æ¦Ĥè¿°":4582,"åı£åı·":4583,"å®Įç¾İ":4584,"åľ¨æŃ¤":4585,"XX":4586,"æĢİä¹ĪåĬŀ":4587,"å¤įåı¤":4588,"äº§çĶŁäºĨ":4589,"æ³°åĿ¦":4590,"åĪĨåŃĲ":4591,"ä¸įèµ·":4592,"æĺİçĻ½":4593,"æľīä»»ä½ķ":4594,"çĺ¦":4595,"çīĽèĤī":4596,"èµİ":4597,"ä¼¦çĲĨ":4598,"çĥ¦":4599,"çĽĹ":4600,"æ¶µçĽĸ":4601,"æľºåľº":4602,"ä¸Ģçīĩ":4603,"è°Ĭ":4604,"ç©ĨæľĹ":4605,"åŃĺåĤ¨":4606,"èĪĩ":4607,"ç¨¿":4608,"çģ«è½¦":4609,"èįĴ":4610,"è¯Ĺäºº":4611,"åĪĨå¸ĥ":4612,"æĪĳè¦ģ":4613,"ä¸ĢçĤ¹":4614,"èī³":4615,"å¸Ĥä¸Ńå¿ĥ":4616,"å¸¦æĿ¥çļĦ":4617,"æİĺ":4618,"ç©ĨæľĹçİĽ":4619,"å¤§éĩıçļĦ":4620,"Ġæııè¿°":4621,"å¤©çĦ¶":4622,"äº¤äºĴ":4623,"åĩºåıĳ":4624,"èıĮ":4625,"è§£çŃĶ":4626,"æŃ§":4627,"å·®å¼Ĥ":4628,"å§ĵåĲį":4629,"çļĦæ½":4630,"æĺ¯è°ģ":4631,"æł¹æį®æīĢ":4632,"å°¼åħĭåı·":4633,"åĽłä¸ºå®ĥä»¬":4634,"äºĮåįģ":4635,"åħĪçĶŁ":4636,"ä¿Ŀéļľ":4637,"è°ĥåĳ³":4638,"èº«ä»½":4639,"ä¸ªæľĪ":4640,"æĽ´å®¹æĺĵ":4641,"åĲ´":4642,"è¶³å¤ŁçļĦ":4643,"é³":4644,"éĻª":4645,"è¿«":4646,"åĿĩè¡¡":4647,"ç©ĨæľĹçİĽå³°":4648,"æĴŀ":4649,"å¦Ĥä½ķåľ¨":4650,"çļĦä¸ĸçķĮ":4651,"åĪ·":4652,"åĨįæ¬¡":4653,"éģ¥":4654,"æĽ´æľī":4655,"åįİçĽĽ":4656,"çĮª":4657,"æıŃ":4658,"èĬ¬":4659,"æķĪçİĩåĴĮ":4660,"æ³°åĿ¦å°¼åħĭåı·":4661,"ç¨į":4662,"åģļå¥½":4663,"éĻ·":4664,"å¥¥è¿Ĳä¼ļ":4665,"èĺ":4666,"éĥ½åľ¨":4667,"èĻļæĭŁçİ°å®ŀ":4668,"å¯¸":4669,"è¯ŃæĢģ":4670,"å½Ĵç±»":4671,"åĽŀå¿Ĩ":4672,"æĪĳåİ»äºĨ":4673,"æŀĦå»º":4674,"ç¥ĸ":4675,"ä¸ªæľĭåıĭ":4676,"è°·æŃĮ":4677,"çļĦæľįåĬ¡":4678,"è¯·ä»İæĸĩç«łä¸ŃæıĲåıĸåĩº":4679,"éĺĲ":4680,"ä¼Ļ":4681,"åįľ":4682,"äºļæ´²":4683,"åįİçĽĽé¡¿":4684,"å½ĵåľ°çļĦ":4685,"èĬĤçĽ®":4686,"ç±»åŀĭçļĦ":4687,"åı¯ä»¥æĺ¯":4688,"æĻºèĥ½æīĭæľº":4689,"å¯¹åħ¶":4690,"åŁİå¸ĤçļĦ":4691,"æ¼Ķè®²":4692,"å°ĳå¹´":4693,"å°¿":4694,"åĴĮæ°´":4695,"åŃĶ":4696,"çĶµå½±çļĦ":4697,"åĨħéĥ¨":4698,"çĮľ":4699,"å»ºè®®ä½ł":4700,"åģļèµ·":4701,"ç¢§":4702,"ç»´æĮģ":4703,"æ°¸è¿ľ":4704,"æľªæĿ¥åıĳå±ķ":4705,"è¯Ńä¹ī":4706,"çıłç©ĨæľĹçİĽå³°":4707,"åĩºåİ»":4708,"åĮ»çĸĹè¡Įä¸ļ":4709,"èĬĤèĥ½":4710,"ä»Ģéº¼":4711,"é¢ĨåŁŁçļĦåºĶçĶ¨":4712,"å¾Īæ£Ĵ":4713,"ä½Ĩä¸į":4714,"å°±ä¼ļ":4715,"ä¸ŃåĽ½çļĦ":4716,"è¡¬è¡«":4717,"åĨ¬å¤©":4718,"60":4719,"æĮĩå¯¼":4720,"ç¿ł":4721,"æī®æ¼Ķ":4722,"å®ĭ":4723,"åĪĻæĺ¯":4724,"æĶ¾æĿ¾èº«å¿ĥ":4725,"ç¢Ĺ":4726,"åŁ¹åħ»":4727,"éĺ³åħīæĺİåªļ":4728,"è¿Ļåıª":4729,"çļĦçĻ":4730,"æııç»ĺ":4731,"é¹ħ":4732,"åĩıè½»åİĭåĬĽ":4733,"æ¶Īæģ¯":4734,"å¹¿æ³ĽçļĦåºĶçĶ¨":4735,"æĬĢæľ¯åĴĮ":4736,"èĥľåĪ©":4737,"è¿Ľè¡ĮæĶ¹åĨĻ":4738,"å¤§åľ°":4739,"å¼Ĺ":4740,"èĬĴ":4741,"éŃħåĬĽ":4742,"æ·±è¿ľ":4743,"åŃ¦ç§ĳ":4744,"in":4745,"å°½ç®¡ä»ĸ":4746,"æĪĳä¸įçŁ¥éģĵ":4747,"çļĦæĥħåĨµä¸ĭ":4748,"çļĦåŁºç¡Ģ":4749,"çļĦä½įç½®":4750,"ä»£æĽ¿":4751,"å®ģéĿĻ":4752,"æĹ¥å¸¸çĶŁæ´»":4753,"ç¤ºä¾ĭ":4754,"çĶŁæĪĲä¸Ģæ®µ":4755,"åį«æĺŁ":4756,"çļĦæķĳ":4757,"è«":4758,"ç©¿è¶Ĭ":4759,"èĩ£":4760,"åĩıå°ĳä½¿çĶ¨":4761,"åĭĩæ°Ķ":4762,"ç®Ģä»ĭ":4763,"å¾Īéļ¾":4764,"éĩĩåıĸè¡ĮåĬ¨":4765,"æŁłæª¬":4766,"åį¢":4767,"æĽ´æĸ°":4768,"å¯ĴåĨ·":4769,"ä¸¤ç§į":4770,"æĸĩç«łä¸ŃæıĲåıĸåĩº":4771,"æ¢¦æĥ³":4772,"åı«åģļ":4773,"æ²Ļåıĳ":4774,"éªĳèĩªè¡Įè½¦":4775,"åĸľæ¬¢çļĦ":4776,"\"ï¼Į":4777,"é¦¨":4778,"éĶģ":4779,"æīĭæ®µ":4780,"æ¶ĪèĢĹ":4781,"çº¢èī²çļĦ":4782,"éĶĢåĶ®é¢Ŀ":4783,"æŁ³":4784,"æĪĲåĳĺ":4785,"éĢļé¡º":4786,"åį°è±¡":4787,"å½ĵæĹ¶":4788,"çº¦ä¸º":4789,"åĲİçļĦ":4790,"çĭĹçļĦ":4791,"çŁ¥åĲį":4792,"çļĦæĳĦåħ¥":4793,"è½»è½»":4794,"æĦŁæŁĵ":4795,"ä¾£":4796,"çĲĨè§£åĴĮ":4797,"çĶ³åħĭ":4798,"èĩ³åħ³":4799,"èĤĸçĶ³åħĭ":4800,"å¼ķäºº":4801,"å¯Ħ":4802,"æļĤ":4803,"å¤§å¤ļæķ°":4804,"ç½©":4805,"ä¸ªåįķè¯į":4806,"æıĴ":4807,"åıĺéĿ©":4808,"çľŁæĺ¯":4809,"è´«":4810,"æĺ¯ç¾İåĽ½":4811,"è¯¥åı¥åŃĲ":4812,"æľĢä½İ":4813,"åłµ":4814,"çŃīæĸ¹å¼ı":4815,"åĬ¨è¯ŃæĢģ":4816,"åľ°çĲĥçļĦ":4817,"ä¸¤åı¥è¯Ŀ":4818,"éĿŀæ´²":4819,"çļĦæĦıæĢĿæĺ¯ä»Ģä¹Ī":4820,"æĹģ":4821,"çĻĮçĹĩ":4822,"çĪ¸":4823,"2022":4824,"2018":4825,"âĢ¦âĢ¦":4826,"èĭ±éĽĦ":4827,"çļĦæ³ķ":4828,"Ġäººå·¥æĻºèĥ½":4829,"æĤ¨åı¯ä»¥åľ¨":4830,"æĿİæĺİ":4831,"æĺ¯æĪĳä»¬":4832,"çļĦäº§åĵģ":4833,"åĪ¶åĵģ":4834,"å¸®æĪĳçĶŁæĪĲåķĨåĵģæĸĩæ¡Ī":4835,"å¹´ä»£":4836,"çļĦä¸Ģéĥ¨åĪĨ":4837,"åŀĭçĶ·":4838,"æ¼ł":4839,"æĤī":4840,"æı´":4841,"ç¡®è®¤":4842,"æĶ¹åĨĻæĪĲ":4843,"æģ¢":4844,"æľºåĻ¨ç¿»è¯ĳ":4845,"çļĦæ¶Ī":4846,"çĶŁæĪĲæĸĩæ¡Ī":4847,"åĩıå°ĳæ±¡æŁĵ":4848,"éĸĵ":4849,"æľīçĶ¨":4850,"çĽ¸åıį":4851,"æ¶¨":4852,"æ¯«":4853,"å¹¶å°Ĩ":4854,"ç²¾å½©":4855,"åĪĨæĶ¯":4856,"çīĪåŀĭ":4857,"éĤĢ":4858,"ä¸įå¾Ĺ":4859,"éķ¿åŁİ":4860,"æİ¨èįĲä¸Ģæľ¬":4861,"çļĦæ¯ı":4862,"è¯ĬæĸŃåĴĮæ²»çĸĹ":4863,"ç»¼åĲĪ":4864,"çĽĪ":4865,"æŃĮè¯į":4866,"çģ«æĺŁ":4867,"çļ®èĤ¤":4868,"è¿ĺèĥ½":4869,"æĦıå¤§åĪ©éĿ¢":4870,"çļĦæ¢¦":4871,"é©±":4872,"å±±èĦī":4873,"å¯Įæľī":4874,"ç§ĳå¹»å°ıè¯´":4875,"ä¸Ģç¯ĩåħ³äºİ":4876,"ä½ĵéĩį":4877,"åĲ¬åĪ°":4878,"ä¸Ģä¸ªéĹ®é¢ĺ":4879,"æģĲæĢĸ":4880,"æĬµ":4881,"é£İæļ´":4882,"çĶ¨æ°´":4883,"çİ¯å¢ĥéĹ®é¢ĺ":4884,"è°¢è°¢ä½ł":4885,"çļĦä»·æł¼":4886,"çļĨ":4887,"è¯·æıĲåıĸåĩº":4888,"çģµæ´»":4889,"çļĦæ¨":4890,"æİ¨çĲĨåħ³ç³»":4891,"å¹¶è¿Ľè¡Į":4892,"æ¯ıå¹´":4893,"æĸ¹æ³ķåı¯ä»¥":4894,"ä¸ĬçıŃ":4895,"ãĢĤãĢĬ":4896,"Ġå½ĵçĦ¶åı¯ä»¥":4897,"èħ°":4898,"ä¸Ńç«ĭçŃĶæ¡Ī":4899,"å°ıæĺİåĴĮå°ıçº¢":4900,"æİ¨çĲĨåħ³ç³»åĪ¤æĸŃ":4901,"è¯·åĽŀçŃĶ":4902,"è¿Ĳè¡Į":4903,"å¯¹æĸĩæľ¬éĶĻè¯¯è¿Ľè¡Įä¿®æĶ¹":4904,"çļĦç¾İå¥½":4905,"éģİ":4906,"éģĵè·¯":4907,"åİ¨æĪ¿":4908,"å¯¹æĸ¹":4909,"æĸĩæľ¬è¿Ľè¡ĮçºłéĶĻ":4910,"æĬĳ":4911,"æµ´":4912,"ç²¾åĩĨ":4913,"æĬĬè¿Ļåı¥è¯Ŀ":4914,"åģ¶":4915,"çļĦè¿ĩç¨ĭ":4916,"æĿī":4917,"åŀ«":4918,"èĥ¸":4919,"çĶµåĬ¨":4920,"è¶ĬæĿ¥è¶Ĭå¤ļ":4921,"éĺ¶æ®µ":4922,"æīĢæľīçļĦå®ŀä½ĵ":4923,"æ¾³":4924,"ä½¿åħ¶æĽ´åĬłæµģçķħ":4925,"çº¤ç»´":4926,"è®²ä¸Ģä¸ª":4927,"åĬłéĢŁ":4928,"åĬ¨åĬĽ":4929,"ä¸Ĭè¿°æĸĩæľ¬è¿Ľè¡ĮçºłéĶĻ":4930,"ä¸Ģç³»åĪĹ":4931,"è¯įè¯Ńæĺ¯ä»Ģä¹ĪæĦıæĢĿ":4932,"çļĦåıĺåĮĸ":4933,"æĿ¥å®ŀçİ°":4934,"åĮĹäº¬å¸Ĥ":4935,"åĿĩåĮĢ":4936,"æĬ½åıĸåĩºæĸĩä¸Ń":4937,"è¿Ļä½į":4938,"æĬ½åıĸåĩºæĸĩä¸ŃæīĢæľīçļĦå®ŀä½ĵ":4939,"åĩºä¸Ģä¸ª":4940,"è¡ĵ":4941,"æ»´":4942,"ä¹Łä¸į":4943,"èµĦæĸĻ":4944,"é»ĳæļĹ":4945,"æķ´ä½ĵ":4946,"å°¼äºļ":4947,"é«Ķ":4948,"æĪĲæŀľ":4949,"åĴĮå®īåħ¨":4950,"éŀĭåŃĲ":4951,"ç¼ĺ":4952,"éī":4953,"è¯ķåĽ¾":4954,"çĶµå½±éĻ¢":4955,"æĲħ":4956,"å½¢çļĦ":4957,"ä¸Ģæ®µè¯Ŀ":4958,"æµģç¨ĭ":4959,"çļĦåģ¥åº·":4960,"åı¯èĥ½å¯¼èĩ´":4961,"ä¿ĿéĻ©":4962,"æĸľ":4963,"æ´Ĵ":4964,"æĻ®éĢļ":4965,"éĩĬæĶ¾":4966,"æĺ¯åĽłä¸º":4967,"è¿Ļç¯ĩæĸĩç«łä¸ŃçļĦ":4968,"é¸Łç±»":4969,"çļĦæķĳèµİ":4970,"è´¸æĺĵ":4971,"æĻ¯è§Ĥ":4972,"æľ±":4973,"çĬ¯ç½ª":4974,"åľĭ":4975,"åıĭè°Ĭ":4976,"yt":4977,"åĩ¯":4978,"çŁ¶":4979,"æĶ¹åĨĻä¸º":4980,"å¿ĥæĢģ":4981,"åıªè¦ģ":4982,"èģĬèģĬ":4983,"éĹľ":4984,"çļĦæĻ¯çĤ¹":4985,"ç§ĳæĬĢçļĦ":4986,"ä¸įåĪ°":4987,"è¯·ä¸º":4988,"ç»Ļå®ļä¸Ģç¯ĩæĸĩç«ł":4989,"æ¢ģ":4990,"ç»Ļå®ļçļĦåı¥åŃĲ":4991,"äºĨä»Ģä¹Ī":4992,"ä¸īç§į":4993,"çİ¯ä¿Ŀæİªæĸ½":4994,"ä»ĸä»¬åľ¨":4995,"è¿ĲçĶ¨":4996,"åĮĸåĴĮ":4997,"æİ¥ç§į":4998,"æĪĳåĴĮ":4999,"æĳĺè¦ģçĶŁæĪĲ":5000,"è°ĭ":5001,"æľºåĻ¨åŃ¦ä¹łç®Ĺæ³ķ":5002,"çĿ¡è§ī":5003,"è®°èĢħ":5004,"æĹ©æĻ¨":5005,"çİ»":5006,"æľºéģĩ":5007,"åĩ½æķ°":5008,"çļĦçģµ":5009,"çĴĥ":5010,"è°Ĳ":5011,"äººç±»æ´»åĬ¨":5012,"èĤĸçĶ³åħĭçļĦæķĳèµİ":5013,"æ¢¨":5014,"å¡ĳæĸĻè¢ĭ":5015,"ython":5016,"åĮĹæŀģ":5017,"æĺ¾èĳĹ":5018,"çļĦæŃ£":5019,"åĲĪçī©":5020,"æĩī":5021,"å¹´è½»äºº":5022,"é¹¿":5023,"ä¿ĿæĬ¤æĪĳä»¬çļĦ":5024,"æ³ª":5025,"ç¾İåĽ½æĢ»ç»Ł":5026,"å¾®é£İ":5027,"å°¤åħ¶æĺ¯":5028,"åĬ£":5029,"ä¾Ŀèµĸ":5030,"è¿Ļéģĵ":5031,"å¤·":5032,"è¿ĳæľŁ":5033,"éĵº":5034,"ä»ĸæĥ³":5035,"é¡¾å®¢":5036,"åıĹä¼¤":5037,"çļĦæ£":5038,"è¾Ľ":5039,"ç§įæ¤į":5040,"ç¼ĸè¾ĳä¸ĭéĿ¢":5041,"å«Į":5042,"æ©ĺ":5043,"å¿ĥçģµ":5044,"èĵĿèī²çļĦ":5045,"éī´":5046,"éħįæĸĻ":5047,"åĲģ":5048,"åı¯è¯»":5049,"çļĦæ°´æŀľ":5050,"æĮĩçļĦæĺ¯":5051,"æĻ®éģį":5052,"åŀĤ":5053,"ä¸Ģèµ·åİ»":5054,"äººå·¥æĻºèĥ½åı¯ä»¥":5055,"çļĦæĥħèĬĤ":5056,"èģĮä½į":5057,"ä¸ĭåĳ¨":5058,"ä½¿çĶ¨çļĦ":5059,"å©´":5060,"Ġ5":5061,"å¤§è±¡":5062,"æĪĲç«ĭ":5063,"åĩĨç¡®æĢ§":5064,"ä¸Ģæ¬¡æĢ§":5065,"åĲİçļĦæĸĩæľ¬":5066,"çĶµå½±åĲįç§°":5067,"ç¢į":5068,"æĺ¯åĲ¦æľī":5069,"åı¯èĥ½æĢ§":5070,"Ġå½ĵçĦ¶":5071,"Python":5072,"çĶ¨åĵģ":5073,"åĳ½åĲį":5074,"æµħ":5075,"å¿ħè¦ģçļĦ":5076,"éĽ¾":5077,"åŃ¦èĢħ":5078,"æĪĳåĢĳ":5079,"æĻļé¤Ĳ":5080,"ä½©":5081,"ä¼ļæľī":5082,"åħĶåŃĲ":5083,"æıĲåīį":5084,"æııè¿°ä¸Ģä¸ª":5085,"é¢Ī":5086,"ä¸¥æł¼":5087,"åĶ¯ä¸Ģ":5088,"è¼":5089,"åĴĮæľįåĬ¡":5090,"åĬłåİļ":5091,"åħ¬ä¼Ĺ":5092,"æľīéĻĲ":5093,"çļĦçĬ":5094,"å¸®åĬ©ä½ł":5095,"çĸı":5096,"è®©å®ĥ":5097,"ç¬¬äºĮä¸ª":5098,"èİī":5099,"äººå·¥æĻºèĥ½æĬĢæľ¯åľ¨":5100,"çº¢æ¥¼":5101,"ä»İè¿Ļç¯ĩæĸĩç«łä¸Ń":5102,"æ±¤å§Ĩ":5103,"é¥®é£Łä¹łæĥ¯":5104,"æĪĳå·²ç»ı":5105,"è°ĵè¯Ń":5106,"è¿Ļåº§":5107,"è¶ħçº§":5108,"åĲĦä¸ªé¢ĨåŁŁ":5109,"çļĦç¥ŀ":5110,"éĻ¤ä»¥":5111,"çļĦçĽ®æłĩ":5112,"çļĦæ·±":5113,"çļĦå¤ĸ":5114,"çİ©å®¶":5115,"è¿Ļæĺ¯ä¸Ģéĥ¨":5116,"æħĪ":5117,"çļĦé¤Ĳåİħ":5118,"çĩĥæĸĻ":5119,"èħ¾":5120,"éĸĭ":5121,"æĪĸåħ¶ä»ĸ":5122,"ç¾İæĻ¯":5123,"åĩłå¹´":5124,"è¯·æ±Ĥ":5125,"å°½å¿«":5126,"æľīæĦıä¹ī":5127,"çļĦç¾İä¸½":5128,"éĺĲè¿°":5129,"çļĦåĲĮä¹īè¯į":5130,"ä¿¡ä»»":5131,"ä»¿ä½Ľ":5132,"æŃ£å¸¸":5133,"æī©å¤§":5134,"çļĦç¬ĳè¯Ŀ":5135,"çļĦæµģ":5136,"è¿ĺåī©":5137,"æ´»åĬĽ":5138,"æī¾åĪ°äºĨ":5139,"æ§":5140,"le":5141,"æī«":5142,"å¤º":5143,"ä¼ĺæĥł":5144,"ç½ļ":5145,"ä¸īè§Ĵ":5146,"æłĩè®°":5147,"æĿ¥æıĲé«ĺ":5148,"æ¶Ĥ":5149,"å¾Īä¸įéĶĻ":5150,"ä¸Ĭæĺł":5151,"è¿ĻäºĽéĥ½æĺ¯":5152,"å½ĵä»Ĭ":5153,"å¤±è´¥":5154,"ä¾ĽåºĶ":5155,"éĿĴå¹´":5156,"åĩĿ":5157,"å¤§æĪĺ":5158,"è¿Ļæľ¬":5159,"ä¾¿æį·":5160,"åıĳåĩº":5161,"åįĹæŀģ":5162,"çļĦç¼ĸç¨ĭ":5163,"æ¼ı":5164,"åĴĮæĹ¶éĹ´":5165,"è§ĦèĮĥ":5166,"ä¸ĢåĪĩ":5167,"è½¬åĮĸä¸º":5168,"çļĦä¼ĺçĤ¹":5169,"å£¤":5170,"åİĨåı²ä¸Ĭ":5171,"ä»İä»¥ä¸ĭ":5172,"æ¯ģ":5173,"å¿ĺè®°":5174,"ä¾§":5175,"æĺ¯éĢļè¿ĩ":5176,"çļĦæĶ¹":5177,"ä¸Ģåħ±":5178,"èº«ä½ĵåĴĮ":5179,"æģ¢å¤į":5180,"äºİæĺ¯":5181,"èĢĮè¨Ģ":5182,"å¹³æĸ¹":5183,"ä¸ĸçķĮæĿ¯":5184,"ä¸ŃçļĦå®ŀä½ĵ":5185,"å¸ħæ°Ķ":5186,"500":5187,"åĬŀåħ¬å®¤":5188,"æŃ¥è¡Į":5189,"çļĦæĬĢå·§":5190,"è¯´è¯Ŀ":5191,"ç²¾èĩ´":5192,"é£İåħī":5193,"çīĽä»Ķè£¤":5194,"æĮĩä»¤":5195,"çİĩåĴĮ":5196,"æĪĲåĬŁçļĦ":5197,"æīĭæľ¯":5198,"éĿ©åĳ½":5199,"ç¶ĵ":5200,"åľ°éľĩ":5201,"å·²ç»ıæĪĲä¸º":5202,"è¤":5203,"éĩįæĸ°åĨĻ":5204,"çŃīæĬĢæľ¯":5205,"èĲ§":5206,"ä¸İåħ¶ä»ĸ":5207,"èģĺ":5208,"æĲħæĭĮ":5209,"ä½łä¹Łåı¯ä»¥":5210,"åľºæīĢ":5211,"ä¸įæĸŃåľ°":5212,"ç²®":5213,"è¯ģæĺİ":5214,"çİ»çĴĥ":5215,"ä¸įç¡®å®ļ":5216,"çº¢æ¥¼æ¢¦":5217,"å®īéĿĻ":5218,"å¦Ĩ":5219,"èĪį":5220,"è¿Ļä»½":5221,"åºŁå¼ĥ":5222,"æĿīçŁ¶":5223,"ç¡®å®ŀ":5224,"è°ĥèĬĤ":5225,"ä¼ı":5226,"ä¼ļåľ¨":5227,"æľīæĹ¶":5228,"éŃĤ":5229,"åĩºçĶŁ":5230,"è¢«ç§°ä¸º":5231,"çļĦçĮ«":5232,"ç»Ĩèħ»":5233,"çļĦé«ĺ":5234,"åĴĮæķ°æį®":5235,"çĲĥéĺŁ":5236,"é©¬æĭī":5237,"å¼ºå¤§":5238,"çĥŃéĩı":5239,"è¯·æĤ¨":5240,"å¯º":5241,"åŁ¹è®Ń":5242,"åľ¨æĪĳ":5243,"æ¶¯":5244,"çļĦå½¢å¼ı":5245,"æĺ¯å¦Ĥä½ķ":5246,"åĴĮå·¥ä½ľ":5247,"çļĦæ¸ħ":5248,"æłĩå¿Ĺ":5249,"è®©è®¡ç®Ĺæľº":5250,"çĥĤ":5251,"å¼Ģå±ķ":5252,"èıĩ":5253,"å¤§çĨĬçĮ«":5254,"é¸ŁåĦ¿":5255,"çĲĥåĳĺ":5256,"èµ·æºĲ":5257,"æĸĩæ¡£":5258,"æĦĪ":5259,"å®¶åĽŃ":5260,"84":5261,"____":5262,"åį³å°Ĩ":5263,"çļĦä¾ĭåŃĲ":5264,"æĺ¯ä¸Ģé¡¹":5265,"æĭħå¿ĥ":5266,"åĳ¼åĲģ":5267,"ä¸ĸçķĮä¸ĬæľĢé«ĺçļĦå±±å³°":5268,"æĸĩä»¶":5269,"ç¿Ķ":5270,"åĮºåĪ«":5271,"åı¯ä»¥å°Ĩ":5272,"åĴĮé«ĺ":5273,"éħª":5274,"æĸĳ":5275,"åĽĽä¸ª":5276,"åİŁå§ĭåı¥åŃĲ":5277,"åħ³éĶ®çĤ¹":5278,"åĿĲåľ¨":5279,"æĽ´é«ĺ":5280,"æĻ®åıĬ":5281,"æľĢå¤ļ":5282,"ç»µ":5283,"è£¤åŃĲ":5284,"è°¢è°¢ä½łçļĦ":5285,"ç»Ļå®ļä¸Ģä¸ªåı¥åŃĲ":5286,"éĹ®çŃĶ":5287,"è¿Ļé¦ĸè¯Ĺ":5288,"ä»İä½ł":5289,"æīĭè¡¨":5290,"æ¨ª":5291,"ä¸ĢçĽ´åľ¨":5292,"èĴľ":5293,"Ŀåįľ":5294,"èµ¶":5295,"èĩªçĦ¶çİ¯å¢ĥ":5296,"åĩºçİ°äºĨ":5297,"æĮĩåįĹ":5298,"å°ıçº¢æľī":5299,"æĪĳè§īå¾Ĺ":5300,"æĺ¯åĵª":5301,"èĢĲå¿ĥ":5302,"æĪĸæĺ¯":5303,"åĮºåĿĹéĵ¾æĬĢæľ¯":5304,"ä¸»äººåħ¬":5305,"åĪ«äºº":5306,"å·¥ç¨ĭå¸Ī":5307,"çļĦæĬķ":5308,"ä»·åĢ¼è§Ĥ":5309,"è¡¨è¿°":5310,"å®ĮåĸĦ":5311,"æĭĸ":5312,"çĵ·":5313,"æĸ°åĨł":5314,"æĸĩç«łä¸ŃæıĲåĪ°äºĨ":5315,"çĤī":5316,"æĪĸçŁŃè¯Ń":5317,"å¾¡":5318,"çļĦæĢģ":5319,"er":5320,"æ°Ķè±¡":5321,"è¦ģæ³¨æĦı":5322,"åĲĪå¹¶æĪĲä¸Ģä¸ª":5323,"äºĴçĽ¸":5324,"éĢĨ":5325,"å¼¦":5326,"å®īè£ħ":5327,"åı¯ä»¥åİ»":5328,"æĦ¿æĦı":5329,"40":5330,"æ´ĽæĿīçŁ¶":5331,"ç°":5332,"èĬ±è´¹":5333,"ä»¥ä¸ĭéĹ®é¢ĺ":5334,"ä¹ĭæĹħ":5335,"ç¼ĵè§£åİĭåĬĽ":5336,"åģ·":5337,"åıł":5338,"æĨ":5339,"åİĨç¨ĭ":5340,"åĨĻä¸Ģä¸ªæłĩé¢ĺ":5341,"å§Ĳ":5342,"çļĦåħ³ç³»":5343,"æĹĹ":5344,"æł¸å¿ĥ":5345,"çļĦé¢ĨåŁŁ":5346,"æ³¥":5347,"è¢Ń":5348,"æĶĢ":5349,"æµ¸":5350,"åĪ©çĽĬ":5351,"å¿łè¯ļ":5352,"åĴĮå»ºè®®":5353,"çĶŁæĪĲä¸Ģä¸ªæłĩé¢ĺ":5354,"ä¼¸":5355,"çĳŁ":5356,"ä¸Ģéģĵ":5357,"ç³Ł":5358,"åı¤åħ¸":5359,"æģ¤":5360,"å¹¶ä¸º":5361,"è¾£æ¤Ĵ":5362,"éĶ»çĤ¼èº«ä½ĵ":5363,"åħīçº¿":5364,"å¼ķåĬĽ":5365,"åĲ¬è¯´":5366,"çļĦæ½ľ":5367,"å¤©ä½ĵ":5368,"åİŁæĿ¥":5369,"æĶ¾å¼ĥ":5370,"é¼»":5371,"éĻĪè¿°åı¥":5372,"å®¶åħ·":5373,"ä¸įæĸŃåıĳå±ķ":5374,"çļĦå®ļä¹ī":5375,"æ®ĸ":5376,"çļĦäººåĲį":5377,"ä¼ļå¯¼èĩ´":5378,"éĩįæĸ°ç¼ĸåĨĻ":5379,"å¦»":5380,"éĩįè¿°":5381,"ä½¿çĶ¨äºĨ":5382,"è³ĩ":5383,"åĲįè¯įçŁŃè¯Ń":5384,"è´Łè´£":5385,"æĪĳä»¬å¿ħé¡»":5386,"åģ¥èº«æĪ¿":5387,"ä½ľä¸ļ":5388,"çļĦæĭ¼":5389,"åį±å®³":5390,"æķ°çĻ¾":5391,"å¦ĤæŀľæĤ¨éľĢè¦ģ":5392,"å·¾":5393,"èµµ":5394,"æ¼«æŃ¥":5395,"è®©äººä»¬":5396,"å½Ĵç±»ä¸º":5397,"æĦıè¯ĨåĪ°":5398,"èĩªåĬ¨é©¾é©¶æ±½è½¦":5399,"æķ°æį®çļĦ":5400,"çĥŃæĥħ":5401,"æħİ":5402,"åįĵ":5403,"åĴĮäººç±»":5404,"åºĻ":5405,"èĦĨ":5406,"åĮ»åŃ¦å½±åĥı":5407,"ï¼ī<|":5408,"æĸĩç«łä¸Ńåħ³äºİ":5409,"æİ¨æĸŃ":5410,"å®ĺæĸ¹":5411,"è¢«è®¤ä¸ºæĺ¯":5412,"é¥±":5413,"æİ¨èįĲä¸Ģéĥ¨":5414,"æĿľ":5415,"ä¸ĭåĪĹåı¥åŃĲ":5416,"åĴĮåĪĨæŀĲ":5417,"çĳ°":5418,"çĶŁåĬ¨":5419,"æĩĴ":5420,"èµĦéĩĳ":5421,"å®¢åİħ":5422,"äºļé©¬":5423,"å¿ĥä¸Ń":5424,"Ã·":5425,"åľ¨éĤ£éĩĮ":5426,"åĲĮåŃ¦":5427,"æĢ»ç»ĵä¸Ģä¸ĭ":5428,"èĢĮä¸į":5429,"èĬĤå¥ı":5430,"ä¹ĭéĹ´çļĦåħ³ç³»":5431,"åľ°åĿĢ":5432,"åĭĥ":5433,"æľĢéĩįè¦ģçļĦ":5434,"çĽĨ":5435,"çĽ¸å½ĵ":5436,"æıĲåıĸä¸Ģä¸ĭ":5437,"æľĪçĲĥ":5438,"åĮĸçŁ³":5439,"èĢĮæĺ¯":5440,"éĤ¦":5441,"èģĶçĽŁ":5442,"èĢģé¼ł":5443,"çªģåĩº":5444,"æ£ĭ":5445,"æķ°ä¸º":5446,"ä¼ĺéĽħ":5447,"éĢĽ":5448,"åº¦çļĦ":5449,"åıĳè¡¨":5450,"åĲĮæł·":5451,"èĪĴéĢĤçļĦ":5452,"åħ¥æīĭ":5453,"æĤ¬çĸĳ":5454,"an":5455,"åĮĸåĲĪçī©":5456,"æĲľç´¢å¼ķæĵİ":5457,"å°ıçļĦ":5458,"ä¹ŁéĿŀå¸¸":5459,"ä¸įåıĺ":5460,"éĺ¿çĶĺ":5461,"ä¸ºä¸Ģåı¥è¯Ŀ":5462,"ä»ĩ":5463,"ä¼ĺç¾İ":5464,"å®¶çĶ¨":5465,"æ»ļ":5466,"åįıåĬ©":5467,"çī¹åĪ«æĺ¯":5468,"æľīäºº":5469,"çĽ¸åºĶçļĦ":5470,"å°ıæĺİçİ°åľ¨":5471,"ä¸įå°ĳ":5472,"åľ°éĵģ":5473,"åľºåĲĪ":5474,"å¿ĥçĲĨåŃ¦":5475,"è¿Ļä¸ªåı¥åŃĲä¸Ń":5476,"æĹħæ¸¸çĽ®çļĦåľ°":5477,"å°ĩ":5478,"è®°å¾Ĺ":5479,"æĬķåħ¥":5480,"çļĦæŃ¥":5481,"åĴĮæĥħæĦŁ":5482,"çī©èģĶç½ĳ":5483,"èĢħçļĦ":5484,"çĽ®çļĦæĺ¯":5485,"è¿Ļå°Ĩ":5486,"âĢĺ":5487,"å¥½äºĨ":5488,"èŃ¦æĸ¹":5489,"æĺĤ":5490,"æĦŁåĪ°å¾Ī":5491,"åľŁåľ°":5492,"âĢĻ":5493,"åħ¼":5494,"èĪªç©º":5495,"åįķä½į":5496,"åĪĨåĪ«æĺ¯":5497,"æ¸©é¦¨":5498,"å¸®ä½ł":5499,"éĩİçĶŁåĬ¨çī©":5500,"äºļé©¬éĢĬ":5501,"éĢīæĭ©ä¸Ģä¸ª":5502,"åŃĺåľ¨åĵªäºĽ":5503,"èĪŁ":5504,"ç»Ļå®ļä¸Ģæ®µæĸĩæľ¬":5505,"æħ¢æħ¢":5506,"åı¯ä»¥æł¹æį®":5507,"è´¹çĶ¨":5508,"ãĢĤâĢĿ\\":5509,"åĪĽä¸ļ":5510,"è®¤çľŁ":5511,"å½ĵæĪĳ":5512,"é¢ĨåŁŁä¸Ń":5513,"ç«Ł":5514,"äººå·¥æĻºèĥ½æĺ¯ä¸Ģç§į":5515,"å¸¦æľī":5516,"çħİ":5517,"èĥľåľ°":5518,"å¨ľ":5519,"æľºåĪ¶":5520,"çļĦåĳ³éģĵ":5521,"æŀ«":5522,"èŀįåĲĪ":5523,"ç§¦":5524,"æ°´åĴĮ":5525,"è®ĵ":5526,"éĥİ":5527,"éĻµ":5528,"çĽ¸åĬł":5529,"æĺ¾å¾Ĺ":5530,"éģµå®Ī":5531,"åįĩé«ĺ":5532,"åĴĮè°Ĳ":5533,"ä¼Ĺå¤ļ":5534,"éĺ²æĻĴ":5535,"è¯·éĹ®æĤ¨":5536,"æĮĸ":5537,"æģ°":5538,"è°¨":5539,"åħĪè¿Ľ":5540,"ä¼Ĳ":5541,"çļĦä¸īä¸ª":5542,"éĩıåŃĲåĬĽåŃ¦":5543,"å°ıæľĭåıĭ":5544,"çļĦèĬ±":5545,"èĿ´":5546,"åıĳéĢģ":5547,"è¯·å°Ĩ":5548,"åĲĥé¥Ń":5549,"æľįè£ħ":5550,"çĹħäºº":5551,"çļĦæĶ¯æĮģ":5552,"çļĦæĦŁåıĹ":5553,"å®ĥåľ¨":5554,"èĿ´èĿ¶":5555,"åĪ©æ¶¦":5556,"ç¢ĳ":5557,"ç¾İåĳ³çļĦ":5558,"æĺĨ":5559,"æĦıè§ģ":5560,"èĸ¯":5561,"è½¨":5562,"å¼Ĥå¸¸":5563,"çļĦè´¨éĩı":5564,"æ¹¾":5565,"ä»¥ä¸ĭæĸĩç«ł":5566,"çļĦæ¯ĶèµĽ":5567,"å¤±åİ»":5568,"åŃĺåľ¨åĵªäºĽå®ŀä½ĵ":5569,"æķĮ":5570,"é¡Į":5571,"è¯ģæį®":5572,"èĥĸ":5573,"æµĵéĥģ":5574,"æ°Ķè´¨":5575,"æ´ĭèĳ±":5576,"ä¸ĭä¸Ģä¸ª":5577,"åĸľæ¬¢åľ¨":5578,"æĸĩèīº":5579,"çļĦæīĭæľº":5580,"è±¡å¾ģ":5581,"è¸ı":5582,"çĭ®åŃĲ":5583,"éĶĻè¿ĩ":5584,"ä»Ģä¹Īæĺ¯äººå·¥æĻºèĥ½":5585,"åŀĥåľ¾éĤ®ä»¶":5586,"ç»Ļäºº":5587,"ä»ĸåĢĳ":5588,"èĲ½åı¶":5589,"åĩĮ":5590,"ä»Ĭå¤©çļĦ":5591,"çļĦä¸Ńå¿ĥ":5592,"çŃīå¤ļä¸ª":5593,"æĥħå¢ĥ":5594,"ç§ĳæĬĢåĪĽæĸ°":5595,"åı¯ä»¥ä»İ":5596,"è¿ĳæĹ¥":5597,"çļĦæ¨¡":5598,"åłª":5599,"çļĦæķĪæŀľ":5600,"éĿŀå¸¸æľīè¶£":5601,"æłĸ":5602,"80":5603,"æĢ§éĹ®é¢ĺ":5604,"çĭ¼":5605,"æ³¨æĦıåĬĽ":5606,"éħ·":5607,"éĴ¢çĲ´":5608,"äºĭé¡¹":5609,"èĪªçıŃ":5610,"åİ¦":5611,"åļ":5612,"ä»ĬæĻļ":5613,"æ¯Ķå¦Ĥè¯´":5614,"æľĪäº®":5615,"|>âĢľ":5616,"ç½Ĺæĸ¯":5617,"æĻĭ":5618,"ä¹Ĳè¶£":5619,"ç·":5620,"è¿Ļæł·çļĦ":5621,"éļĨ":5622,"æŀĦæĪĲ":5623,"éĥ½èĥ½":5624,"çĶ»éĿ¢":5625,"çļĦç¤¼":5626,"çļĦæ¢¦æĥ³":5627,"åħģ":5628,"ä¸ĬåįĪ":5629,"éľį":5630,"çļĦåŃ¦ä¹ł":5631,"ç£ģ":5632,"æľīå®³":5633,"è¦ĨçĽĸ":5634,"å·¥ä½ľæķĪçİĩ":5635,"è®¾è®¡ä¸Ģä¸ª":5636,"æĢ»ç»ĵä»ĸä»¬":5637,"éĢıæĺİ":5638,"æĿ¥çľĭ":5639,"éĩĳå±ŀ":5640,"çīĩæ®µ":5641,"éĥ½å¾Ī":5642,"åŃ©åŃĲä»¬":5643,"å½»":5644,"æīĭå·¥":5645,"å¯ĵ":5646,"ç»ĻäºĪ":5647,"ä¸¤äºº":5648,"åĴĮä¸į":5649,"è·Į":5650,"ç§ĳå¹»çĶµå½±":5651,"åľ¨è¿ĻéĩĮ":5652,"æİ¥çĿĢ":5653,"å¤±æľĽ":5654,"çĶŁæĢģçİ¯å¢ĥ":5655,"çļĦéĥ¨åĪĨ":5656,"æĴĴ":5657,"çİ°çĬ¶":5658,"çĵ¦":5659,"å¯¹æīĭ":5660,"åĴĮæĪĳ":5661,"åĩıåİ»":5662,"çĸ²åĬ³":5663,"ä¹ĺåĿĲ":5664,"ä½łçŁ¥éģĵ":5665,"ä¸ĩçī©":5666,"è¿ģ":5667,"åĬĽäºİ":5668,"ä¼ĺç§ĢçļĦ":5669,"ä»İæĸĩç«łä¸Ń":5670,"éĤ»":5671,"çĶľçĤ¹":5672,"é¥¼å¹²":5673,"æĻ¶":5674,"åİ»çľĭ":5675,"çļĦç´":5676,"å£¶":5677,"æĪĳåĸľæ¬¢åĲĥ":5678,"æĪĳæĺ¯ä¸Ģä¸ª":5679,"ä¹Łèĥ½":5680,"åĩłä¸ªèĭ¹æŀľ":5681,"ä¸»æĹ¨":5682,"ä½Ĩå®ĥ":5683,"åĽ¾æ¡Ī":5684,"åħ´è¶£çĪ±å¥½":5685,"åĸĿåĴĸåķ¡":5686,"æ¯ıæ¬¡":5687,"æĴĳ":5688,"çİ¯ä¿ĿéĹ®é¢ĺ":5689,"æĦŁçŁ¥":5690,"åĽŀå¤į":5691,"è¿Ī":5692,"ä¼ļå¯¹":5693,"ç§ĭåĨ¬":5694,"åľŁå£¤":5695,"çļĦå¸®åĬ©":5696,"ä½łåĸľæ¬¢":5697,"æĪĳå¸ĮæľĽ":5698,"éĿŀå¸¸éĢĤåĲĪ":5699,"èº«è¾¹":5700,"ç»ĻæĪĳæıĲä¾Ľä¸ĢäºĽ":5701,"æĶ¹éĿ©":5702,"åĩıèĤ¥":5703,"èĥ¶":5704,"åħ±äº«":5705,"åŃ¦æľ¯":5706,"éĴĵ":5707,"äººå·¥æĻºèĥ½åĴĮ":5708,"ä»Ĭå¤©æĹ©ä¸Ĭ":5709,"ç»ıåħ¸çļĦ":5710,"èī°":5711,"çľŁå¥½":5712,"åĽŀåĪ°":5713,"å¸ĿåĽ½":5714,"æĹ¥å¸¸çĶŁæ´»ä¸Ń":5715,"å¤±ä¸ļ":5716,"çļĦæĶ¶":5717,"æ¥Ń":5718,"çĶµåĻ¨":5719,"æ¸ħæ¥ļ":5720,"ç²¾ç¡®":5721,"åı¤è¯ĹçĶŁæĪĲ":5722,"æ±Ĺ":5723,"éģĹäº§":5724,"æĤ²ä¼¤":5725,"ç½²":5726,"å¾Īå¤ļäºº":5727,"çĶŁæ´»çļĦ":5728,"çļĦçŁŃæĸĩ":5729,"æ°´ä¸Ń":5730,"èŃ¦å¯Ł":5731,"ĠAI":5732,"æ²¡æľīæıĲä¾Ľ":5733,"æĪĳè¿ĺ":5734,"æĢĴ":5735,"éļ¾å¿ĺ":5736,"ä»¥æıĲé«ĺ":5737,"è¿Ļä¸ªåŁİå¸Ĥ":5738,"æļĳ":5739,"æĭĴ":5740,"åħ³éĹŃ":5741,"å±Ĭ":5742,"æ»¤":5743,"ä¸įåĨį":5744,"æķ°æį®ä¸Ń":5745,"åĲ¾":5746,"è¦ģæ±Ĥåħ·æľī":5747,"è¿Ļä¹Ī":5748,"æ©Ł":5749,"çĸĳéĹ®åı¥":5750,"åĿ¡":5751,"çļĦå¤©æ°ĶæĥħåĨµ":5752,"çĶŁæĪĲä¸Ģç¯ĩ":5753,"åĢ¾åĲĳ":5754,"çļĦéĩįçĤ¹":5755,"çļĦæ²Ļ":5756,"è¿ĲåĬ¨åĳĺ":5757,"å®´":5758,"èħĬ":5759,"ç©¿ä¸Ĭ":5760,"ç®ĢçŁŃçļĦæĳĺè¦ģ":5761,"åįļå®¢":5762,"æĺİäº®":5763,"çİĭæĺŁ":5764,"æĪĳåı¯ä»¥ä¸ºæĤ¨":5765,"è¡°":5766,"åĴĮæĬĢæľ¯":5767,"éĤ£è¯·éĹ®":5768,"æľīå¤ļå°ĳ":5769,"çļĦæİĴæĶ¾":5770,"å¯¹è±¡":5771,"åıĮæĸ¹":5772,"ç¥ŀç§ĺçļĦ":5773,"çļĦæľĢä½³":5774,"åı¯ä»¥å¸®åĬ©åĮ»çĶŁ":5775,"ãĢĳ":5776,"ç»Īäºİ":5777,"çĽ¸åĲĮçļĦ":5778,"æĻĵ":5779,"åłĨ":5780,"ãĢĲ":5781,"èĤīç±»":5782,"Ġ+":5783,"æĢģåº¦":5784,"æĺı":5785,"æİ¨è¿Ľ":5786,"åı¯è¡Į":5787,"å²Ĺ":5788,"ç¿Ĵ":5789,"åĪĽéĢłåĬĽ":5790,"çĶ¨ä¸Ģåı¥è¯Ŀ":5791,"éĶ¦":5792,"éĽķ":5793,"çŃĽ":5794,"çļĦç¨ĭ":5795,"ç¤¾ä¼ļçļĦ":5796,"åĪ¸":5797,"å¾Īå¿«":5798,"çİ«":5799,"ä¼Ļä¼´":5800,"çļĦæ°ĽåĽ´":5801,"èĤ©":5802,"æĪĳå¯¹":5803,"å°ıåŀĭ":5804,"æĶ¿åºľåĴĮ":5805,"èĶ¬èıľåĴĮ":5806,"æ±īåł¡":5807,"äººå·¥æĻºèĥ½åºĶçĶ¨":5808,"çĶµå½±è¯Ħè®º":5809,"çļĦæµ·æ»©":5810,"åİŁåĪĻ":5811,"å¥½çľĭçļĦçĶµå½±":5812,"æĪĳæĺ¯":5813,"æĤ¨ä¹Łåı¯ä»¥":5814,"åħ¨éĥ¨":5815,"æĽ´ç®Ģæ´ģ":5816,"å¼Ģè½¦":5817,"éĿŀå¸¸æľī":5818,"å¤§è§Ħæ¨¡":5819,"æ»¨":5820,"æ¯ıä¸ªäººçļĦ":5821,"éĹ¹":5822,"ä¸įçĶ¨":5823,"äººå·¥æĻºèĥ½å°Ĩ":5824,"ä¸Ńæī¾åĪ°":5825,"åĩĨç¡®åľ°":5826,"èīºæľ¯å®¶":5827,"æĹ±":5828,"æĹħç¨ĭ":5829,"éĿŀæ³ķ":5830,"ä»İä»¥ä¸ĭæĸĩæľ¬":5831,"ç´łé£Ł":5832,"ä¼¤å®³":5833,"å¤ļäºĳ":5834,"æ¯Ķäºļ":5835,"åħ¨çĲĥèĮĥåĽ´åĨħ":5836,"å®¶æĹı":5837,"å°ĸ":5838,"æ»ĭ":5839,"è®¡ç®Ĺæľºç¨ĭåºı":5840,"åģļä¸ĢäºĽ":5841,"çļĦæĭ¼åĨĻ":5842,"æķ°æį®åĴĮ":5843,"äºĮæ°§åĮĸç¢³":5844,"å¾Ĳ":5845,"æĺĵè¯»":5846,"çļĦåĴĸåķ¡":5847,"è±ĨèħĲ":5848,"æĪª":5849,"æłĳåı¶":5850,"...":5851,"è¯¦ç»ĨçļĦ":5852,"çļĦæĬ¥":5853,"çį":5854,"åŃ¦ä¹łæĸ°":5855,"éĢłæĪĲäºĨ":5856,"è¿Ĳè¾ĵ":5857,"æł¹æį®æıĲä¾ĽçļĦæĸĩæľ¬":5858,"åĢĴåħ¥":5859,"ä¹Łå°±æĺ¯":5860,"å»·":5861,"ä¿®å¤į":5862,"åĴĮæĺĵäºİçĲĨè§£":5863,"å¹½é»ĺ":5864,"è£Ĥ":5865,"è¦ģåİ»":5866,"æĤ¨å¥½":5867,"æĿİåįİ":5868,"ä½łæĥ³":5869,"æ³Ħ":5870,"æĪĳä¼ļå°½åĬĽ":5871,"åĨĽäºĭ":5872,"ä¸ªåŃĹç¬¦":5873,"äººæķ°":5874,"æ²ĥ":5875,"çļĦä½ľçĶ¨":5876,"è¿Ļä¸ªæķħäºĭ":5877,"æľ¨æĺŁ":5878,"çĶ±äºİå¤©æ°Ķ":5879,"åĽłä¸ºä»ĸ":5880,"æľºç¥¨":5881,"æĿİåĽĽ":5882,"ç©ºæ°Ķæ±¡æŁĵ":5883,"åĬŀæ³ķ":5884,"æĥħæĦŁåĪĨç±»":5885,"æĺŁéĻħ":5886,"æľīæľº":5887,"æīİ":5888,"èĥ¡èĲ":5889,"èĥ¡èĲĿåįľ":5890,"å¹´è½»çļĦ":5891,"æĥ§":5892,"ä»Ĭå¤©æĺ¯":5893,"æ¢°":5894,"èĢĮå¼Ĥ":5895,"æľ¯è¯Ń":5896,"å²ģæľĪ":5897,"åħįè´¹":5898,"éĻ¤æ³ķ":5899,"èĭ¹æŀľåħ¬åı¸":5900,"æĤ¨çļĦéĹ®é¢ĺ":5901,"å¾Īæľīè¶£":5902,"è¿Ļä¸ªäºº":5903,"èĬĤçº¦èĥ½æºĲ":5904,"çĶ·äºº":5905,"è§Ĩä¸º":5906,"éĿ¢ä¸Ĭ":5907,"ç½Ĺé©¬":5908,"éĩįåĨĻä¸º":5909,"æ¡¶":5910,"çļĦæłĳ":5911,"æ¯ıä¸ªäººéĥ½åºĶè¯¥":5912,"æģ¨":5913,"å°¿çĹħ":5914,"ä¹ĥ":5915,"æĺŁæĺŁ":5916,"å¯¹ä»¥ä¸ĭåı¥åŃĲ":5917,"åīĳ":5918,"ç´§æĢ¥":5919,"è®²è¿°äºĨä¸Ģ":5920,"æĪĳä¸ºæĤ¨":5921,"éĢļä¿¡":5922,"éĢīæĭ©éĢĤåĲĪ":5923,"çļĦæķ°åŃĹ":5924,"å¾Īå¤§çļĦ":5925,"æĮ¯":5926,"è¿ĻäºĽéĹ®é¢ĺ":5927,"éĻ¤æŃ¤":5928,"ç»³":5929,"ä¿¡åı·":5930,"åĩıåİĭ":5931,"å¸®åĬ©åĮ»çĶŁ":5932,"ç§ĭé£İ":5933,"æŀģç«¯å¤©æ°Ķ":5934,"æĹ¥çĽĬ":5935,"åĽŀå½Ĵ":5936,"æ¡ĮåŃĲ":5937,"éŁ§":5938,"è¿Ļæľ¬å°ıè¯´":5939,"åı¬":5940,"å¤ªå¤ļ":5941,"èĩ´åĬĽäºİ":5942,"è´¾":5943,"éĿ¢è¯ķ":5944,"èĭį":5945,"éĩįéĩı":5946,"ï¼ħ":5947,"åĨĮ":5948,"åħĦ":5949,"æ¶Į":5950,"å¤ªæ£Ĵ":5951,"ç§Ĵ":5952,"åĪĳ":5953,"è¡Ģç®¡":5954,"åı¯ä»¥å¸®åĬ©ä½ł":5955,"ç»Ļå®ļæĸĩæľ¬":5956,"è¹Ī":5957,"åĩºçļĦ":5958,"åĪ¶åº¦":5959,"æĪ¿åŃĲ":5960,"æķĻåŃ¦":5961,"æł¹æį®æıĲä¾ĽçļĦ":5962,"åľ¨è¿Ļ":5963,"çĪ±çļĦ":5964,"æĢ§åĪ«":5965,"èĮ«":5966,"çļĦæİ¢":5967,"èĻ¾":5968,"éĻĮ":5969,"å¹²åĩĢ":5970,"å®ŀæľ¨":5971,"å¤ªæ£ĴäºĨ":5972,"ç³Łç³ķ":5973,"åŃĹç¬¦ä¸²":5974,"æĽ´å¥½åľ°çĲĨè§£":5975,"æĶ¹åıĺäºĨ":5976,"å¿ĥèĦıçĹħ":5977,"æľºåĻ¨åŃ¦ä¹łæĺ¯ä¸Ģç§į":5978,"å¤´èĦĳ":5979,"åĴĮåģ¥åº·":5980,"è¯·æ³¨æĦı":5981,"çļĦç¤¾äº¤":5982,"ç³ĸå°¿çĹħ":5983,"ä½łæľĢåĸľæ¬¢":5984,"åģļä¸Ģä¸ª":5985,"æĸ°æĬĢæľ¯":5986,"å¤ĩåıĹ":5987,"èµ°äºĨ":5988,"çªģçł´":5989,"åĩºçīĪ":5990,"åľ°çĲĨ":5991,"ä¸ºä¸»":5992,"ç¿©":5993,"æ¬º":5994,"ä¸ĸçķĮä¸Ĭ":5995,"ç¼ĸç¨ĭè¯Ńè¨Ģ":5996,"æııåĨĻ":5997,"om":5998,"åı¯èĥ½çļĦ":5999,"èµł":6000,"199":6001,"çļĦæĢģåº¦":6002,"çļĦæłĩçĤ¹ç¬¦åı·":6003,"éĻ¤æŃ¤ä¹ĭå¤ĸ":6004,"äººæĢ§":6005,"æĺİçĻ½äºĨ":6006,"æŁ¿":6007,"èĺĳ":6008,"ï¼ģâĢĿ":6009,"æ´¾å¯¹":6010,"çĻ¾å¹´":6011,"ä½¿åħ¶æĽ´åħ·":6012,"éĤĢè¯·":6013,"æĪĳå¾Īåĸľæ¬¢":6014,"ä¸įèī¯":6015,"åĲĮäºĭ":6016,"ä¹Łå°Ĩ":6017,"æ¯ıåĳ¨":6018,"äºĨä¸Ģåľº":6019,"ç¾İå¦Ļ":6020,"çıŃçīĻ":6021,"çļĦæ°ĶåĢĻ":6022,"è¥¿çıŃçīĻ":6023,"å¯¼èĩ´äºĨ":6024,"ä»¥èİ·åıĸ":6025,"èĺĳèıĩ":6026,"å¹¶è§£éĩĬ":6027,"éĢłåŀĭ":6028,"æĮº":6029,"åĴĮèĶ¬èıľ":6030,"çĲĨå¿µ":6031,"æł¹æį®æĸĩç«ł":6032,"ä¼łéĢĴ":6033,"ä¸ĭçļĦ":6034,"çĽ¸ä¼¼åº¦":6035,"æľĢéĢĤåĲĪ":6036,"28":6037,"æĸĩæľ¬åĨħå®¹":6038,"ä½¿è®¡ç®Ĺæľº":6039,"èĬĿå£«":6040,"çļĦæ°Ķæģ¯":6041,"\"ãĢĤ":6042,"åĸ·":6043,"åĢ¡":6044,"æµ·æµª":6045,"ä¼į":6046,"éĢģç»Ļ":6047,"åĪ¶æĪĲ":6048,"çĶ³è¯·":6049,"çİ«çĳ°":6050,"å®¢æľį":6051,"æĪĳçİ°åľ¨":6052,"ä¿ĿæĬ¤åľ°çĲĥ":6053,"ä¿ĿæĮģèº«ä½ĵåģ¥åº·":6054,"èĢĮæĪĲ":6055,"æµ·æĭĶ":6056,"çļĦåĲĮæĹ¶":6057,"å¦ĤæŀľæĤ¨æĥ³":6058,"å¸¦çĿĢ":6059,"å¯¹è¯Ŀä¸Ń":6060,"åı¯èĥ½éľĢè¦ģ":6061,"éªĮè¯ģ":6062,"çļĦå£°éŁ³":6063,"æł¼å¼ı":6064,"åºŁå¼ĥçī©":6065,"çļĦåŃ£èĬĤ":6066,"çļĦæĶ¿":6067,"ä¹Łåľ¨":6068,"é½¿":6069,"å¥¹åľ¨":6070,"åħ±åĲĮåĬªåĬĽ":6071,"åıįæĺł":6072,"æĪĳçļĦæľĭåıĭ":6073,"çļĦç®ĢçŁŃ":6074,"åħĥéĴ±":6075,"ä¸ĬäºĨ":6076,"ä¹ĭä¸Ģæĺ¯":6077,"åĬłåħ¥ä¸ĢäºĽ":6078,"ç¿ħ":6079,"å®¾è¯Ń":6080,"æİ¥è§¦":6081,"æĺ¯ä¸ĸçķĮä¸ĬæľĢ":6082,"AP":6083,"21":6084,"å®ļä½į":6085,"ä¼łç»ŁçļĦ":6086,"å¼ķäººåħ¥":6087,"çĶ¨éĢĶ":6088,"æĸ¹éĿ¢çļĦåºĶçĶ¨":6089,"çŃīäºİ":6090,"å¥¶éħª":6091,"åĴĮçĦ¦èĻĳ":6092,"ä½ĵçİ°":6093,"åĪĽéĢłä¸Ģä¸ª":6094,"åį±æľº":6095,"ä¸»æ¼Ķ":6096,"æ¯ıäºº":6097,"æĪĲä¸ºä¸Ģä¸ª":6098,"åģļä»Ģä¹Ī":6099,"åł´":6100,"å¤ļåĲĥ":6101,"æĺ¯ä¸Ģå®¶":6102,"æŀļ":6103,"å¼ºåĮĸ":6104,"åĪĩæĪĲ":6105,"ä½ĵç³»":6106,"ä¸Ģåħ±æľīå¤ļå°ĳ":6107,"NA":6108,"ä»¥åĨħ":6109,"å©´åĦ¿":6110,"ç¬ĳè¯Ŀ":6111,"æŀķ":6112,"æĥĳ":6113,"å¿«éĢŁåıĳå±ķ":6114,"Ġä»ĸ":6115,"å¼ķäººåħ¥èĥľ":6116,"Jo":6117,"ä¼ĳéĹ²è£¤":6118,"èį¯çī©çłĶåıĳ":6119,"éľŀ":6120,"ç®ĢåİĨ":6121,"åı¯ä»¥å¸®åĬ©æĪĳä»¬":6122,"æ°ĽåĽ´":6123,"ä½Ĩä¹Ł":6124,"å±ıå¹ķ":6125,"çļĦåľºæĻ¯":6126,"å¯¹ç»Ļå®ļçļĦ":6127,"è¿ŀè´¯":6128,"çļĦç¾İæĻ¯":6129,"æĬ¼":6130,"å¥½åĲĥ":6131,"å¤ıå¨ģ":6132,"çļĦçĹħ":6133,"ï¼ĳ":6134,"å¤ıå¨ģå¤·":6135,"æĹĭå¾ĭ":6136,"åħ½":6137,"æıĲä¾ĽæĽ´å¤ļ":6138,"æķ°æį®åĪĨæŀĲ":6139,"éĢ¢":6140,"ä½¿å®ĥ":6141,"çŃīåĽłç´ł":6142,"æľªæĿ¥çļĦåıĳå±ķ":6143,"æĶ¿æ²»":6144,"åıĻ":6145,"åĩºèī²çļĦ":6146,"è·ŁæĪĳ":6147,"å±ħä½ı":6148,"é«ĺæ¸©":6149,"è¿ľç¨ĭ":6150,"ä¸įå¤Ł":6151,"åĿĽ":6152,"åī²":6153,"æ¿Ģåıĳ":6154,"çļĦæĸĩåĮĸ":6155,"åĴĮåŃ¦ä¹ł":6156,"è¯·ç»Ļåĩº":6157,"æĢ»ä¹ĭ":6158,"ä¹Ķæ²»":6159,"ä½Ĩåľ¨":6160,"åı¥åŃĲä¸ŃçļĦ":6161,"äºĳè®¡ç®Ĺ":6162,"æŁĲç§į":6163,"å¾Ģå¾Ģ":6164,"éĻªä¼´":6165,"æŃ£ä¼ł":6166,"æ¡Ĩ":6167,"äºĨä¸Ģå®¶":6168,"éļľç¢į":6169,"ç»ıçĲĨ":6170,"æĤ¨åı¯ä»¥èĢĥèĻĳ":6171,"ç§ĳåŃ¦å®¶ä»¬":6172,"å¥³åŃĲ":6173,"æ¸©å®¤æ°Ķä½ĵæİĴæĶ¾":6174,"å¤§å¤§":6175,"æķĻå¸Ī":6176,"æķ°åŃĹåĮĸ":6177,"åĩıç¼ĵ":6178,"çļĦæĻ®":6179,"åı¯è¯»æĢ§":6180,"ä¸įåĸľæ¬¢":6181,"è¿ĩäºİ":6182,"å¯ĮåĲ«":6183,"å¾®ç¬ĳ":6184,"æĢİä¹Īåģļ":6185,"åĴĮä¸ªäºº":6186,"åĪĿåŃ¦èĢħ":6187,"åı¯ä»¥çĶ¨äºİ":6188,"ç³Ĭ":6189,"åĨ²çªģ":6190,"åĲĲ":6191,"çļĦèĭ¹æŀľ":6192,"å¾ĴæŃ¥":6193,"æ°Ķæģ¯":6194,"åħ¶å®ŀ":6195,"æ¡Īä»¶":6196,"äº«çĶ¨":6197,"èı²å°Ķ":6198,"åľŁè±Ĩ":6199,"æ¨¡æĭŁäººç±»æĻºèĥ½":6200,"è¿Ļä¸ªé¡¹çĽ®":6201,"èµ·åºĬ":6202,"éŁ³ä¹Ĳä¼ļ":6203,"æ¡Īä¾ĭ":6204,"åĴĮè¡Įä¸º":6205,"çļĦæ¡":6206,"äº¿ç¾İåħĥ":6207,"çļĦç©ºæ°Ķ":6208,"åĲ¦å®ļ":6209,"æļ®":6210,"æľįåĬ¡åĳĺ":6211,"çıįæĥľ":6212,"æĪĺçķ¥":6213,"è¿Ľè¡ĮæĢ»ç»ĵ":6214,"çļĦæ¤":6215,"æľīäºĽäºº":6216,"æĴ°åĨĻ":6217,"å¹¶ä½¿çĶ¨":6218,"æĿ¥åĪ°":6219,"è¯·ä»İæĸĩç«łä¸ŃæıĲåıĸ":6220,"æĺ¥èĬĤ":6221,"èĥĨ":6222,"å¹¿åľº":6223,"ä¸ĸçķĮåĲĦåľ°":6224,"å¹¿éĺĶ":6225,"å¹³çŃī":6226,"åĴĮæĶ¯æĮģ":6227,"æĺİæ²»":6228,"è´¨æĦŁ":6229,"æĽ´å¥½åľ°äºĨè§£":6230,"çİ°åľº":6231,"ç²¾åĬĽ":6232,"ç«ĭåį³":6233,"èº«æĿĲ":6234,"å¦Ĥä½ķæıĲé«ĺ":6235,"çĩ¥":6236,"è¿½éĢĲ":6237,"è¯·éļıæĹ¶":6238,"ä½łèĥ½ä¸įèĥ½":6239,"æĦŁäºº":6240,"æıĲåıĸæĸĩç«łä¸ŃçļĦ":6241,"äººå·¥æĻºèĥ½å¯¹":6242,"éĢļçŁ¥":6243,"æĪ·å¤ĸè¿ĲåĬ¨":6244,"æĹłèģĬ":6245,"é«ĺéĢŁ":6246,"åĩłä¹İ":6247,"åĬłå·¥":6248,"ä¿Ħç½Ĺæĸ¯":6249,"çĸ¾çĹħçļĦ":6250,"å¿į":6251,"èĪŀè¹Ī":6252,"è¿Ļä»¶":6253,"åįģäºĮ":6254,"åĩ¤":6255,"åĿļæŀľ":6256,"æĢĿå¿µ":6257,"éĩĬä¹ī":6258,"éĹ»åĲį":6259,"äºīè®®":6260,"çĪ¶æ¯į":6261,"æĢ»ç»ĵåĩº":6262,"å¼ºå¤§çļĦ":6263,"éĵģå¡Ķ":6264,"åķĨåľº":6265,"åĺ´":6266,"æĮĸæİĺ":6267,"æĭ¯":6268,"è´·":6269,"ä¹ĭä¸Ń":6270,"æľªæĿ¥ç§ĳæĬĢ":6271,"æ¿ĢçĥĪ":6272,"é¬¼":6273,"çļĦä¼ĺåĬ¿":6274,"çļĦåĬŁèĥ½":6275,"åľ°ä½į":6276,"å®ŀéĻħä¸Ĭ":6277,"åħģè®¸":6278,"èŁ":6279,"æĤłä¹ħ":6280,"å¦Ĥä½ķåĪ¶ä½ľ":6281,"éĿĴæĺ¥":6282,"æıĲåıĸåĩºæĿ¥":6283,"ç¬¬ä¸Ģæ¬¡":6284,"çĶŁæĪĲä¸Ģä»½":6285,"èĥ½åĬĽåĴĮ":6286,"è¯Ńå¢ĥ":6287,"æł¹æį®çĶ¨æĪ·":6288,"è¾ī":6289,"æĺİæľĪ":6290,"åķı":6291,"çļĦæķ°åŃ¦":6292,"ä¼ģé¹ħ":6293,"ä¸ºåħ¶":6294,"çļĦçĬ¶":6295,"èĽĩ":6296,"æĽ´åħ·":6297,"æī©å±ķ":6298,"è¿ĻäºĽæĬĢæľ¯":6299,"æĿ¥äºĨ":6300,"æŀ¯":6301,"ç¿¼":6302,"å¥½åĥı":6303,"ä¸Ģéģį":6304,"åĬłç»Ĵ":6305,"ä»ĸæĬĬ":6306,"åı¯ä»¥ä¸º":6307,"ç¾¤ä½ĵ":6308,"ç»ĦæĪĲéĥ¨åĪĨ":6309,"èĩ³åħ³éĩįè¦ģ":6310,"æĹłæ³ķç¡®å®ļ":6311,"hn":6312,"å¾Į":6313,"æķħäºĭæĥħèĬĤ":6314,"å¹¼":6315,"åĮĨ":6316,"ä¼Łå¤§çļĦ":6317,"èµ¢å¾ĹäºĨ":6318,"éĺ¿çĶĺæŃ£ä¼ł":6319,"èĢģèĻİ":6320,"çļĦæĲ":6321,"éĢĶå¾Ħ":6322,"çļĦçł´":6323,"æľ¬èº«":6324,"å·²çŁ¥":6325,"å¹¶ä¸įæĺ¯":6326,"å£³":6327,"æĬ¢":6328,"ç§ĳæĬĢåħ¬åı¸":6329,"çī¹æĢ§":6330,"ä¸ŃçļĦåħ³éĶ®è¯į":6331,"è¯ŀ":6332,"åįĹäº¬":6333,"è¿ĻäºĽä¿¡æģ¯":6334,"çļĦæķĻèĤ²":6335,"èº«ä¸Ĭ":6336,"ä½ľä¸ºAIè¯Ńè¨Ģæ¨¡åŀĭ":6337,"èĪĴæľį":6338,"çļĦéĺ³åħī":6339,"å¤ĸæĺŁ":6340,"è¡¨è¾¾æĸ¹å¼ı":6341,"ä½łåı¯ä»¥åľ¨":6342,"æ°Ľ":6343,"å¤ļæ¬¡":6344,"æ¡Ĥ":6345,"çĽ¸åħ³çļĦéĹ®é¢ĺ":6346,"å°Ĩç»Ļå®ļçļĦ":6347,"æľīæ°§":6348,"çĶµåŃĲåķĨåĬ¡":6349,"æłĳæľ¨":6350,"åįıè®®":6351,"Ġ4":6352,"æĪ¿å±ĭ":6353,"è®©äººæĦŁåĪ°":6354,"çļĦè¿ĩç¨ĭä¸Ń":6355,"åĴĮç»Ħç»ĩ":6356,"ä¸īæĺİæ²»":6357,"çļĦä¸ľè¥¿":6358,"åĩłç§į":6359,"æĭ¯æķĳ":6360,"ç¬¼":6361,"éģ®":6362,"è¨Ī":6363,"æ¯ıå¤©æĹ©ä¸Ĭ":6364,"ä»İä¸Ń":6365,"åħ¨çĲĥæ°ĶåĢĻåıĺåĮĸ":6366,"å¤Ħäºİ":6367,"æĽ´ç®Ģåįķ":6368,"çİ°ä»£ç¤¾ä¼ļ":6369,"çĲĨæĥ³":6370,"çºªå¿µ":6371,"çļĦæĻ¯èī²":6372,"å°Ĩåħ¶ä¸ŃçļĦ":6373,"åĲ¸æĶ¶":6374,"æĪĳåĸľæ¬¢åľ¨":6375,"è¡¨çİ°åĩº":6376,"è¿Ľåı£":6377,"å§Ĩæĸ¯":6378,"ä»¥åīį":6379,"è¿Ļä¸ªè¯įè¯Ńæĺ¯ä»Ģä¹ĪæĦıæĢĿ":6380,"åħ¶ä¸Ńä¸Ģä¸ª":6381,"åĩŃ":6382,"åı¯ä»¥æıĲä¾Ľ":6383,"æıĲé«ĺäºĨ":6384,"åį§å®¤":6385,"ä¾ĿçĦ¶":6386,"éŁ©åĽ½":6387,"çļĦä»£è¡¨":6388,"åĴĮå°ı":6389,"å¤ļå½©":6390,"éªĹ":6391,"åĨ°å·Ŀ":6392,"ä»¥åħ¶":6393,"æĿİçĻ½":6394,"éĹ®é¢ĺåĴĮ":6395,"æĦıå¤ĸ":6396,"å¤¹åħĭ":6397,"åĦ¿åŃĲ":6398,"ä¸Ľ":6399}